unsigned char mlp_fp32_tflite[] = {
  0x1c, 0x00, 0x00, 0x00, 0x54, 0x46, 0x4c, 0x33, 0x14, 0x00, 0x20, 0x00,
  0x1c, 0x00, 0x18, 0x00, 0x14, 0x00, 0x10, 0x00, 0x0c, 0x00, 0x00, 0x00,
  0x08, 0x00, 0x04, 0x00, 0x14, 0x00, 0x00, 0x00, 0x1c, 0x00, 0x00, 0x00,
  0x84, 0x00, 0x00, 0x00, 0xdc, 0x00, 0x00, 0x00, 0x08, 0x2b, 0x00, 0x00,
  0x18, 0x2b, 0x00, 0x00, 0x8c, 0x30, 0x00, 0x00, 0x03, 0x00, 0x00, 0x00,
  0x01, 0x00, 0x00, 0x00, 0x04, 0x00, 0x00, 0x00, 0xaa, 0xd4, 0xff, 0xff,
  0x0c, 0x00, 0x00, 0x00, 0x1c, 0x00, 0x00, 0x00, 0x3c, 0x00, 0x00, 0x00,
  0x0f, 0x00, 0x00, 0x00, 0x73, 0x65, 0x72, 0x76, 0x69, 0x6e, 0x67, 0x5f,
  0x64, 0x65, 0x66, 0x61, 0x75, 0x6c, 0x74, 0x00, 0x01, 0x00, 0x00, 0x00,
  0x04, 0x00, 0x00, 0x00, 0x98, 0xff, 0xff, 0xff, 0x0a, 0x00, 0x00, 0x00,
  0x04, 0x00, 0x00, 0x00, 0x08, 0x00, 0x00, 0x00, 0x6f, 0x75, 0x74, 0x70,
  0x75, 0x74, 0x5f, 0x30, 0x00, 0x00, 0x00, 0x00, 0x01, 0x00, 0x00, 0x00,
  0x04, 0x00, 0x00, 0x00, 0xfa, 0xd5, 0xff, 0xff, 0x04, 0x00, 0x00, 0x00,
  0x04, 0x00, 0x00, 0x00, 0x66, 0x65, 0x61, 0x74, 0x00, 0x00, 0x00, 0x00,
  0x02, 0x00, 0x00, 0x00, 0x34, 0x00, 0x00, 0x00, 0x04, 0x00, 0x00, 0x00,
  0xdc, 0xff, 0xff, 0xff, 0x0d, 0x00, 0x00, 0x00, 0x04, 0x00, 0x00, 0x00,
  0x13, 0x00, 0x00, 0x00, 0x43, 0x4f, 0x4e, 0x56, 0x45, 0x52, 0x53, 0x49,
  0x4f, 0x4e, 0x5f, 0x4d, 0x45, 0x54, 0x41, 0x44, 0x41, 0x54, 0x41, 0x00,
  0x08, 0x00, 0x0c, 0x00, 0x08, 0x00, 0x04, 0x00, 0x08, 0x00, 0x00, 0x00,
  0x0c, 0x00, 0x00, 0x00, 0x04, 0x00, 0x00, 0x00, 0x13, 0x00, 0x00, 0x00,
  0x6d, 0x69, 0x6e, 0x5f, 0x72, 0x75, 0x6e, 0x74, 0x69, 0x6d, 0x65, 0x5f,
  0x76, 0x65, 0x72, 0x73, 0x69, 0x6f, 0x6e, 0x00, 0x0e, 0x00, 0x00, 0x00,
  0x28, 0x2a, 0x00, 0x00, 0x20, 0x2a, 0x00, 0x00, 0x90, 0x29, 0x00, 0x00,
  0x78, 0x09, 0x00, 0x00, 0x64, 0x09, 0x00, 0x00, 0xd4, 0x08, 0x00, 0x00,
  0xc4, 0x07, 0x00, 0x00, 0xb4, 0x00, 0x00, 0x00, 0xac, 0x00, 0x00, 0x00,
  0xa4, 0x00, 0x00, 0x00, 0x9c, 0x00, 0x00, 0x00, 0x94, 0x00, 0x00, 0x00,
  0x74, 0x00, 0x00, 0x00, 0x04, 0x00, 0x00, 0x00, 0xa6, 0xd6, 0xff, 0xff,
  0x04, 0x00, 0x00, 0x00, 0x60, 0x00, 0x00, 0x00, 0x10, 0x00, 0x00, 0x00,
  0x00, 0x00, 0x00, 0x00, 0x08, 0x00, 0x0e, 0x00, 0x08, 0x00, 0x04, 0x00,
  0x08, 0x00, 0x00, 0x00, 0x10, 0x00, 0x00, 0x00, 0x24, 0x00, 0x00, 0x00,
  0x00, 0x00, 0x06, 0x00, 0x08, 0x00, 0x04, 0x00, 0x06, 0x00, 0x00, 0x00,
  0x04, 0x00, 0x00, 0x00, 0x00, 0x00, 0x00, 0x00, 0x0c, 0x00, 0x18, 0x00,
  0x14, 0x00, 0x10, 0x00, 0x0c, 0x00, 0x04, 0x00, 0x0c, 0x00, 0x00, 0x00,
  0x64, 0x1c, 0xc5, 0xec, 0x89, 0x0a, 0x08, 0xc1, 0x01, 0x00, 0x00, 0x00,
  0x02, 0x00, 0x00, 0x00, 0x04, 0x00, 0x00, 0x00, 0x06, 0x00, 0x00, 0x00,
  0x32, 0x2e, 0x31, 0x38, 0x2e, 0x31, 0x00, 0x00, 0x12, 0xd7, 0xff, 0xff,
  0x04, 0x00, 0x00, 0x00, 0x10, 0x00, 0x00, 0x00, 0x31, 0x2e, 0x31, 0x34,
  0x2e, 0x30, 0x00, 0x00, 0x00, 0x00, 0x00, 0x00, 0x00, 0x00, 0x00, 0x00,
  0x38, 0xd1, 0xff, 0xff, 0x3c, 0xd1, 0xff, 0xff, 0x40, 0xd1, 0xff, 0xff,
  0x44, 0xd1, 0xff, 0xff, 0x3e, 0xd7, 0xff, 0xff, 0x04, 0x00, 0x00, 0x00,
  0x00, 0x07, 0x00, 0x00, 0xc2, 0x36, 0x16, 0x3f, 0x6a, 0x41, 0x90, 0xbe,
  0x42, 0x89, 0x8c, 0x3e, 0xbe, 0x21, 0x3b, 0xbf, 0x2a, 0x46, 0x08, 0x3e,
  0xa0, 0x51, 0xf3, 0x3e, 0x98, 0x97, 0x2f, 0xbf, 0xcd, 0xe2, 0x60, 0x3e,
  0x88, 0xf1, 0x3c, 0x3e, 0x83, 0xae, 0xdd, 0x3e, 0x78, 0x9c, 0x18, 0xbf,
  0x53, 0xe4, 0x4e, 0x3e, 0x21, 0x4e, 0x29, 0xbf, 0xab, 0x65, 0xc4, 0xbe,
  0x3b, 0xd0, 0x95, 0xbe, 0x5c, 0x0f, 0x2e, 0xbd, 0x05, 0x6c, 0xa2, 0x3e,
  0xa3, 0x98, 0x1f, 0x3b, 0x90, 0x9a, 0x74, 0xbe, 0x33, 0xc3, 0x0c, 0x3d,
  0xa6, 0xbf, 0x01, 0x3f, 0xd9, 0x2f, 0xc7, 0x3d, 0x00, 0xdb, 0x16, 0x3c,
  0x6b, 0xd9, 0xdf, 0x3e, 0x5b, 0x0a, 0x99, 0xbf, 0xd1, 0x02, 0xea, 0xbe,
  0x53, 0x55, 0x72, 0xbf, 0x1b, 0xe2, 0x9c, 0xbf, 0x5d, 0x61, 0xd1, 0xbf,
  0x1f, 0x71, 0x85, 0x3e, 0xd1, 0x4d, 0x8c, 0xbf, 0x3d, 0xe0, 0x5a, 0x3e,
  0x1b, 0x00, 0x21, 0x3d, 0xb6, 0xea, 0x98, 0xbf, 0x3c, 0x01, 0x86, 0xbe,
  0x94, 0xf8, 0xe4, 0x3e, 0x9c, 0x92, 0xb5, 0xbd, 0xcf, 0x90, 0xe9, 0x3d,
  0xe0, 0xed, 0x4a, 0xbf, 0xbd, 0xf3, 0xad, 0x3e, 0xd4, 0x29, 0xf9, 0xbe,
  0x48, 0x42, 0x18, 0xbf, 0x6b, 0x4e, 0x06, 0x3f, 0x36, 0x03, 0x3b, 0x3e,
  0x91, 0xe6, 0x38, 0x3e, 0xe7, 0x0b, 0x3c, 0x3e, 0xc5, 0x9b, 0xb0, 0x3e,
  0x39, 0x13, 0x3d, 0xbf, 0xad, 0xec, 0xd1, 0x3e, 0x77, 0x36, 0xf6, 0xbf,
  0xe0, 0x8e, 0x82, 0xbc, 0xb8, 0x37, 0xbe, 0xbf, 0x9f, 0x61, 0x1c, 0xbf,
  0x98, 0x8f, 0x5c, 0x3e, 0x97, 0xdc, 0xfb, 0xbe, 0x19, 0xb5, 0x59, 0xbf,
  0xb9, 0xc1, 0x37, 0xc0, 0xd8, 0xac, 0x0c, 0xbd, 0x1e, 0x94, 0x2e, 0x3f,
  0xa8, 0x9b, 0x05, 0x3e, 0xe1, 0xd8, 0x40, 0x3d, 0x1d, 0xe6, 0xa3, 0xbf,
  0x07, 0x0a, 0xe8, 0xbc, 0x9b, 0x72, 0xbb, 0x3d, 0xd2, 0x4e, 0x67, 0x3e,
  0x47, 0x4a, 0x9b, 0x3e, 0x5a, 0x47, 0x24, 0xbf, 0x44, 0xa7, 0x27, 0x3e,
  0x9a, 0x85, 0x3f, 0xbf, 0x2e, 0x0a, 0x11, 0xbf, 0xeb, 0x88, 0x1a, 0x3f,
  0x12, 0x70, 0x3f, 0xbe, 0x5a, 0x6e, 0xd3, 0x3e, 0xdb, 0x15, 0x8e, 0x3d,
  0x06, 0x86, 0x24, 0x3e, 0x98, 0x50, 0x4d, 0xbc, 0xed, 0xd4, 0x9c, 0xbe,
  0x9d, 0x9a, 0x2f, 0xbf, 0x1a, 0x65, 0x18, 0x3e, 0xbe, 0x96, 0xb0, 0x3e,
  0x1e, 0x52, 0x3f, 0x3e, 0xa2, 0x58, 0x73, 0xbb, 0x04, 0xd3, 0xcd, 0xbf,
  0x6a, 0x6e, 0x46, 0x3e, 0x7c, 0x27, 0xb2, 0x3f, 0x40, 0xe8, 0x4b, 0xbc,
  0x1c, 0xad, 0xef, 0x3e, 0xf6, 0x12, 0x15, 0x3e, 0xda, 0xe7, 0x2a, 0x3d,
  0x6d, 0x57, 0x29, 0xbd, 0xe2, 0x00, 0x2b, 0x3c, 0x56, 0x2a, 0x31, 0x3e,
  0x44, 0x5d, 0x1b, 0xbe, 0x00, 0x5f, 0x3e, 0x3d, 0x41, 0xf9, 0x0a, 0xbe,
  0x1d, 0x39, 0x5b, 0xbf, 0xe7, 0x57, 0x1d, 0x3f, 0x6b, 0x3a, 0xaa, 0xbe,
  0xf2, 0x02, 0x6e, 0x3f, 0x8c, 0xb9, 0xbe, 0xbd, 0x8b, 0xdb, 0x1e, 0x3e,
  0x5b, 0x30, 0x1b, 0xbf, 0xaa, 0xdf, 0x80, 0x3d, 0xab, 0xba, 0xc1, 0xbf,
  0x7c, 0xd6, 0xa0, 0xbe, 0x36, 0x58, 0x19, 0x40, 0xf7, 0x73, 0x8b, 0xbe,
  0xf1, 0x22, 0x0d, 0x40, 0xfd, 0xe6, 0x05, 0x3e, 0x62, 0xa7, 0x1f, 0x3e,
  0x21, 0x53, 0x40, 0x3c, 0x73, 0x72, 0x24, 0xbe, 0xc2, 0x4a, 0x1e, 0x3f,
  0x56, 0x38, 0x8d, 0xbd, 0xa3, 0xc7, 0xa6, 0x3e, 0xc0, 0x2e, 0x6f, 0x3e,
  0x30, 0x3d, 0xc9, 0x3e, 0xfb, 0x6a, 0xf0, 0xbe, 0x11, 0xda, 0xc2, 0x3d,
  0x02, 0x13, 0x56, 0x3f, 0x3c, 0xf6, 0x19, 0xbe, 0x95, 0xeb, 0x5c, 0x3e,
  0x1f, 0xb1, 0x32, 0xbe, 0x37, 0xc3, 0x9f, 0x3e, 0x2e, 0x35, 0xae, 0x3e,
  0x9a, 0xbc, 0x4b, 0xbd, 0xb0, 0xc9, 0xe7, 0x3f, 0xa0, 0xe0, 0x34, 0xbc,
  0x63, 0x0a, 0x95, 0x3f, 0x4a, 0xab, 0x7e, 0x3d, 0xc3, 0x47, 0xd2, 0x3b,
  0xae, 0x59, 0x43, 0xbb, 0x4d, 0x9e, 0x8a, 0xbd, 0x10, 0xe7, 0xd2, 0xbf,
  0x91, 0x2b, 0x8d, 0x3e, 0xfe, 0x0b, 0x4a, 0xbf, 0x47, 0xcc, 0xa6, 0xbe,
  0xcf, 0x9d, 0x89, 0xbf, 0x34, 0xbc, 0x48, 0xbe, 0x37, 0x12, 0x5b, 0x3e,
  0xcb, 0x03, 0xa1, 0x3d, 0x00, 0x0f, 0xde, 0x3d, 0xea, 0xbc, 0x5d, 0x3e,
  0xaa, 0x63, 0x91, 0x3e, 0xac, 0x34, 0x00, 0xbf, 0x5f, 0x13, 0x77, 0x3e,
  0xc4, 0x27, 0x52, 0xbe, 0xf6, 0x04, 0x7a, 0x3f, 0x3a, 0x8a, 0xc4, 0xbd,
  0x68, 0x4d, 0xef, 0xbe, 0x9e, 0xe2, 0x48, 0xbe, 0x52, 0xda, 0x55, 0xbf,
  0x66, 0xfa, 0x1c, 0xbf, 0x88, 0x78, 0x1b, 0xbf, 0xff, 0xd4, 0x1d, 0x3f,
  0xec, 0x3e, 0x85, 0x3d, 0xf3, 0x21, 0x6b, 0x3e, 0x33, 0x46, 0x0a, 0xbf,
  0x01, 0xba, 0xff, 0x3d, 0x40, 0x7e, 0xd7, 0xbe, 0x89, 0x4c, 0x0d, 0xbf,
  0xfc, 0xfd, 0x1b, 0xbc, 0xb9, 0x96, 0x54, 0xbe, 0x43, 0x46, 0x93, 0x3e,
  0xc1, 0xd7, 0x69, 0xbe, 0x80, 0x1a, 0xb8, 0x3d, 0x4d, 0x94, 0xca, 0x3e,
  0x2c, 0x4e, 0x0d, 0xbc, 0x4b, 0x42, 0x37, 0xbf, 0x0e, 0x07, 0x7d, 0x3e,
  0x5c, 0xb2, 0xe5, 0xbe, 0x9b, 0x98, 0x80, 0xbc, 0xeb, 0x95, 0x54, 0x3d,
  0x7a, 0x99, 0x09, 0xc0, 0x3c, 0xc6, 0xa1, 0x3d, 0x74, 0xf7, 0x93, 0x3e,
  0x6c, 0x45, 0x50, 0xbe, 0x69, 0xf4, 0xe2, 0x3c, 0xf5, 0xed, 0x0c, 0xbf,
  0x7e, 0x72, 0x09, 0x3e, 0x7c, 0xc1, 0xab, 0xbf, 0x4c, 0x4e, 0x8f, 0xbe,
  0xa4, 0x9a, 0x2d, 0xc0, 0x20, 0xc4, 0x29, 0x3c, 0x18, 0xe4, 0xcf, 0xbe,
  0x13, 0x3e, 0x67, 0xbd, 0x62, 0x67, 0x38, 0x3d, 0x60, 0x0d, 0xd2, 0x3b,
  0x50, 0x85, 0x9a, 0xbe, 0xef, 0xd4, 0x28, 0xbe, 0x9c, 0xa8, 0x59, 0xbd,
  0x9a, 0xe0, 0x4f, 0x3e, 0x4e, 0x57, 0x84, 0xbe, 0x7b, 0x3a, 0x62, 0xbe,
  0xa7, 0x6c, 0x06, 0x3f, 0xd3, 0x9e, 0x14, 0xbf, 0x96, 0xa1, 0xb3, 0xbe,
  0x40, 0x2c, 0x6c, 0xbc, 0x78, 0x37, 0x0b, 0xbf, 0x89, 0x3a, 0xb8, 0x3d,
  0x66, 0x09, 0x99, 0xbf, 0x78, 0xeb, 0xa5, 0xbe, 0xe9, 0x05, 0x04, 0x3e,
  0xb9, 0xfe, 0x82, 0xc0, 0xd4, 0x70, 0x14, 0x3e, 0x43, 0xfa, 0x8f, 0xc0,
  0x4d, 0xfc, 0x4d, 0x3d, 0x1e, 0x1c, 0x01, 0xbf, 0x8d, 0x37, 0x9c, 0xbb,
  0xc9, 0x82, 0x52, 0xbd, 0xf3, 0x93, 0x80, 0xbe, 0x34, 0xa5, 0x0a, 0xbe,
  0x8b, 0x5b, 0xd5, 0x3d, 0x59, 0x2c, 0x88, 0xbe, 0x41, 0xa2, 0xa1, 0xbf,
  0xc3, 0x97, 0x07, 0x3f, 0x02, 0x04, 0x31, 0x3d, 0x79, 0xc7, 0x3f, 0xbe,
  0x38, 0x50, 0x0b, 0x3d, 0x13, 0x05, 0x48, 0xbc, 0xe0, 0xb9, 0x2c, 0x3f,
  0xfe, 0x27, 0xd6, 0xbd, 0xb3, 0x18, 0x36, 0xbf, 0xfe, 0x99, 0x3c, 0x3f,
  0xe6, 0x41, 0x5e, 0xbe, 0x80, 0xbf, 0x4e, 0xbb, 0x14, 0xd1, 0x31, 0x3e,
  0x10, 0xd1, 0x79, 0xbe, 0x8f, 0x9a, 0x43, 0x3b, 0x56, 0x56, 0x87, 0x3d,
  0x71, 0x63, 0xdd, 0x3d, 0xcc, 0x52, 0x1c, 0xc0, 0x1d, 0x60, 0x1f, 0xbe,
  0x7c, 0x3c, 0x39, 0xbf, 0x43, 0x6d, 0x99, 0x3e, 0x5e, 0x7b, 0xc2, 0x3e,
  0x65, 0xfb, 0xba, 0xbf, 0xa8, 0x60, 0x38, 0x3e, 0x36, 0x89, 0x36, 0xc0,
  0x32, 0x42, 0x0f, 0xbe, 0x47, 0x1b, 0x10, 0xc0, 0xda, 0x23, 0x12, 0xbe,
  0xcb, 0xd6, 0x2d, 0x3b, 0x82, 0xb9, 0x7c, 0xba, 0x1a, 0xa3, 0x05, 0x3e,
  0x9f, 0xa6, 0xad, 0x3f, 0x68, 0xf2, 0xe1, 0x3d, 0x20, 0xbb, 0x8e, 0x3e,
  0x92, 0x7d, 0x9f, 0xbe, 0xe9, 0x8b, 0x8a, 0x3e, 0x0f, 0x57, 0xc4, 0x3e,
  0x82, 0x04, 0xba, 0xbe, 0x10, 0x50, 0x32, 0xbd, 0x28, 0xbc, 0x2b, 0xbe,
  0x86, 0x21, 0xcd, 0x3e, 0x10, 0xcf, 0xe9, 0xbe, 0x4a, 0x79, 0x16, 0x3e,
  0x23, 0x2c, 0x6c, 0xbf, 0x97, 0x3d, 0x17, 0xbf, 0x90, 0x0b, 0x8a, 0xbf,
  0x8e, 0xc4, 0x75, 0x3e, 0xd2, 0xae, 0x67, 0xbf, 0x9b, 0x93, 0x95, 0xbe,
  0x1b, 0x48, 0xb3, 0x3e, 0x23, 0xd5, 0xf5, 0xbf, 0x87, 0x6b, 0xdc, 0xbe,
  0x28, 0xcb, 0x81, 0x3f, 0x14, 0x5e, 0xd8, 0x3d, 0x4b, 0x14, 0x3c, 0x3e,
  0x8b, 0xd8, 0x9e, 0x3c, 0x86, 0xb0, 0xee, 0xbc, 0x20, 0xe3, 0x36, 0xbe,
  0x3b, 0xb2, 0x15, 0xbd, 0xa7, 0x79, 0x4d, 0x3f, 0x6e, 0xf6, 0x90, 0xbe,
  0xc2, 0xc9, 0x25, 0x3f, 0x24, 0xaa, 0x94, 0x3e, 0x1b, 0x3c, 0x84, 0x3d,
  0x30, 0xeb, 0xd1, 0xbd, 0xff, 0x3a, 0xb8, 0xbd, 0x88, 0xbe, 0x05, 0x3f,
  0x94, 0x30, 0xc6, 0xbd, 0x84, 0xe6, 0xc2, 0xbd, 0x31, 0xc0, 0x85, 0xbe,
  0x62, 0x6c, 0x79, 0xbf, 0x97, 0x9d, 0x7c, 0xbf, 0x4e, 0xbf, 0x97, 0xbc,
  0xf7, 0x7e, 0xdb, 0xbd, 0xb0, 0x60, 0x3b, 0xbe, 0xfc, 0x28, 0x1f, 0x3e,
  0x7a, 0xab, 0x0f, 0x3e, 0x08, 0xc1, 0x7f, 0xbe, 0xd4, 0x52, 0x4e, 0x3e,
  0x2e, 0x9f, 0x98, 0xbe, 0xa0, 0x62, 0x0c, 0x3f, 0xe0, 0xd0, 0xc0, 0xbc,
  0x6e, 0x24, 0x9f, 0x3e, 0x7b, 0x07, 0x3c, 0xbf, 0x82, 0x4b, 0x3a, 0x3f,
  0xe0, 0xfa, 0x40, 0xbf, 0x67, 0x42, 0x26, 0xbf, 0xb2, 0x87, 0xec, 0xbe,
  0x51, 0x5e, 0x8d, 0x3e, 0x65, 0x7b, 0x00, 0x3e, 0x6f, 0xb1, 0xde, 0xbe,
  0x34, 0x10, 0xd1, 0x3e, 0x16, 0x31, 0x2e, 0xbe, 0x16, 0x90, 0x36, 0xbf,
  0x8d, 0x50, 0x7a, 0x3d, 0xf8, 0x7e, 0x57, 0xbd, 0xdb, 0x31, 0x9f, 0x3e,
  0x64, 0x63, 0xbe, 0xbc, 0x7b, 0xd9, 0xac, 0xbf, 0x1a, 0xb2, 0xf9, 0x3e,
  0x17, 0x8b, 0x52, 0x3d, 0x79, 0x88, 0x55, 0x3f, 0x8f, 0x70, 0x81, 0x3e,
  0xfd, 0xac, 0x65, 0x3f, 0xfb, 0xc8, 0x9d, 0xbe, 0x42, 0x83, 0x32, 0xbf,
  0x4c, 0x4a, 0xa7, 0x3e, 0xb2, 0x07, 0x4b, 0x3d, 0x8e, 0x71, 0x5a, 0xc0,
  0x7c, 0x73, 0xd8, 0xbd, 0x50, 0xe2, 0x50, 0xc0, 0xd5, 0x81, 0xbe, 0x3d,
  0xfe, 0x22, 0xae, 0xbe, 0x34, 0xf7, 0xdc, 0xbd, 0xab, 0x6a, 0x12, 0xbe,
  0x9d, 0x4d, 0x2f, 0x3e, 0xa2, 0xc4, 0xee, 0xbd, 0xf3, 0xe4, 0x82, 0x3d,
  0x40, 0xa8, 0x42, 0xbd, 0xf9, 0xcf, 0x87, 0xbf, 0xda, 0xc5, 0x83, 0x3e,
  0x45, 0x43, 0x1a, 0x3d, 0xfd, 0x11, 0xa1, 0x3f, 0x58, 0x6f, 0x42, 0x3e,
  0xa0, 0x67, 0xe7, 0x3d, 0xab, 0x43, 0xa5, 0x3e, 0xe5, 0x91, 0xb3, 0x3e,
  0xdb, 0x32, 0x2b, 0xbf, 0x39, 0x19, 0xc8, 0x3e, 0x41, 0x93, 0x32, 0xc0,
  0x99, 0x24, 0x88, 0x3e, 0xc8, 0xc2, 0xcd, 0xbf, 0x5e, 0x5d, 0x4b, 0xbe,
  0x4e, 0xc9, 0x5f, 0x3d, 0x7a, 0x18, 0xec, 0x3d, 0x6d, 0xca, 0xa7, 0x3d,
  0x06, 0x8a, 0x09, 0x3f, 0xa0, 0xe1, 0x67, 0xbe, 0x2e, 0x55, 0xdd, 0xbd,
  0x79, 0x15, 0x78, 0x3e, 0x0c, 0x0e, 0xe8, 0x3e, 0x52, 0x39, 0x8c, 0xbf,
  0xee, 0xa9, 0xa3, 0xbd, 0x2c, 0x53, 0xe8, 0xbe, 0x20, 0xb5, 0x2d, 0x3c,
  0x99, 0x10, 0x31, 0x3e, 0x20, 0xa4, 0x24, 0x3d, 0x16, 0x5c, 0xf2, 0xbd,
  0xa3, 0x02, 0xf6, 0xbd, 0x5c, 0xf4, 0xc9, 0xbc, 0x83, 0x57, 0x54, 0x3f,
  0x44, 0x99, 0xf8, 0x3d, 0xa3, 0xdf, 0x16, 0x3f, 0x1c, 0xc3, 0xcd, 0x3d,
  0x1a, 0x83, 0x72, 0xbe, 0x03, 0x66, 0xb9, 0xbf, 0x6c, 0xbd, 0x65, 0xbd,
  0xa2, 0x81, 0x56, 0x3f, 0x48, 0xf3, 0x43, 0x3d, 0x7f, 0x12, 0x4c, 0x3f,
  0x46, 0x21, 0x31, 0x3e, 0xb0, 0xbb, 0x8b, 0x3e, 0xcf, 0x93, 0x01, 0xbf,
  0xa6, 0xfa, 0x91, 0xbd, 0xb2, 0xe9, 0x51, 0x3f, 0x40, 0x1f, 0x91, 0xbd,
  0x52, 0x24, 0xb7, 0xbe, 0xbe, 0x1f, 0xa3, 0xbf, 0x2f, 0x78, 0xcc, 0x3c,
  0x56, 0x86, 0xde, 0xbe, 0x12, 0xa2, 0xb2, 0xbf, 0x9c, 0x76, 0x25, 0xc0,
  0x97, 0x71, 0x2d, 0xbe, 0x19, 0xaa, 0x9f, 0xbf, 0x3a, 0xd9, 0x94, 0xbe,
  0x80, 0x4c, 0x04, 0x3c, 0x3e, 0x10, 0x5a, 0x3d, 0xd0, 0x7c, 0x06, 0xbb,
  0x17, 0x1b, 0x28, 0x3e, 0x4e, 0x97, 0x6f, 0x3e, 0x94, 0xd5, 0x67, 0x3e,
  0xc4, 0x3b, 0x6a, 0xbe, 0x0d, 0x1b, 0xa2, 0x3d, 0x13, 0x74, 0x88, 0xbf,
  0x1e, 0x0f, 0x98, 0xbe, 0xff, 0xdb, 0x78, 0xc0, 0xce, 0xcc, 0x84, 0xbe,
  0xef, 0xf4, 0x28, 0xbf, 0x31, 0x33, 0xb8, 0x3d, 0x55, 0x40, 0xf9, 0x3c,
  0x83, 0x15, 0x53, 0xbf, 0xc7, 0xc2, 0x15, 0x3e, 0x62, 0x85, 0x1e, 0x3f,
  0xb6, 0x0e, 0xc6, 0xbd, 0x41, 0xb1, 0x9e, 0x3e, 0xb9, 0x79, 0xfd, 0x3d,
  0x56, 0x65, 0x89, 0xbf, 0x3d, 0x09, 0x4f, 0xbe, 0x59, 0x09, 0x71, 0x3e,
  0x3c, 0xbb, 0x0b, 0xc0, 0xb0, 0xe6, 0x8e, 0x3c, 0x50, 0xbb, 0x18, 0xc0,
  0x81, 0x10, 0xa3, 0xbc, 0xb7, 0x36, 0xaf, 0xbe, 0x36, 0x7a, 0x61, 0xbb,
  0x1a, 0xb4, 0x3f, 0x3c, 0x8b, 0x86, 0x1f, 0xbf, 0x9e, 0xa4, 0x74, 0x3e,
  0x55, 0x37, 0x72, 0xbe, 0x82, 0x77, 0x3b, 0xbe, 0x5d, 0xcd, 0x8e, 0xbd,
  0x2a, 0x75, 0xf1, 0x3d, 0xd8, 0xd8, 0x33, 0x3c, 0x21, 0x18, 0x08, 0xc0,
  0x32, 0x9a, 0x8b, 0xbd, 0xb1, 0x45, 0xd8, 0xbf, 0xad, 0x2c, 0x46, 0xbe,
  0xff, 0x40, 0xad, 0xbf, 0xd7, 0x4f, 0xa5, 0x3e, 0x48, 0x4c, 0xe6, 0xbe,
  0xc7, 0x3e, 0x6e, 0x3e, 0x00, 0x85, 0xd3, 0x3a, 0x7e, 0xc5, 0x2f, 0x3d,
  0x01, 0x92, 0xc3, 0xbe, 0x4a, 0x29, 0xbc, 0x3d, 0x1b, 0x61, 0x98, 0xbf,
  0x35, 0xfd, 0x8a, 0xbe, 0x0c, 0x37, 0x08, 0xc0, 0x66, 0xe6, 0x81, 0xbe,
  0xfc, 0x5d, 0x85, 0x3f, 0x1d, 0xaa, 0x1d, 0xbf, 0xe5, 0x08, 0xec, 0x3d,
  0xe2, 0xfc, 0xa0, 0xbf, 0xe6, 0x72, 0xe2, 0xbd, 0x4a, 0xde, 0xff, 0xff,
  0x04, 0x00, 0x00, 0x00, 0x00, 0x01, 0x00, 0x00, 0xdf, 0xd3, 0x03, 0x3f,
  0x87, 0xf5, 0xbb, 0xbe, 0xd2, 0x3d, 0x2a, 0xbe, 0xf5, 0x67, 0x1c, 0xbd,
  0x93, 0x26, 0x91, 0x3e, 0x6e, 0x07, 0xad, 0x3e, 0x44, 0x7b, 0x4d, 0x3d,
  0x30, 0xf6, 0x40, 0x3e, 0x21, 0x91, 0xbd, 0xbd, 0xd4, 0x35, 0xd5, 0xbe,
  0x29, 0x06, 0xcc, 0xbe, 0xd1, 0xf4, 0x54, 0x3e, 0xda, 0x67, 0xad, 0x3d,
  0xa9, 0x89, 0xfa, 0xbd, 0x55, 0xf4, 0x24, 0x3e, 0x38, 0x5a, 0x99, 0x3d,
  0xc0, 0x8b, 0x80, 0xbe, 0xd6, 0x60, 0x0e, 0xbe, 0xa6, 0x03, 0xeb, 0x3d,
  0xd9, 0x48, 0x38, 0x3f, 0x10, 0x99, 0x48, 0xbe, 0xf1, 0x43, 0xa0, 0x3e,
  0x83, 0xe6, 0x78, 0xbe, 0x80, 0x97, 0x3c, 0xbf, 0x2b, 0x27, 0x89, 0x3e,
  0x77, 0xe3, 0xf4, 0xbe, 0xca, 0xcb, 0xa5, 0x3e, 0x78, 0xd6, 0x6c, 0x3d,
  0x31, 0x9d, 0x8a, 0x3e, 0x72, 0x8e, 0x63, 0x3c, 0x18, 0x2a, 0xbf, 0xbe,
  0x8a, 0x9a, 0xd4, 0x3c, 0xef, 0x8e, 0x30, 0x3f, 0xa3, 0x3a, 0x7c, 0xbe,
  0xf2, 0xcd, 0x3a, 0xbe, 0x70, 0x60, 0x89, 0x3c, 0x40, 0xd9, 0xda, 0xbe,
  0x3a, 0x5c, 0x3c, 0x3e, 0x02, 0x5d, 0x41, 0x3c, 0x0f, 0x43, 0x30, 0x3d,
  0x61, 0x53, 0xbc, 0x3e, 0xc7, 0xb6, 0x07, 0x3f, 0xe1, 0x69, 0x5b, 0x3e,
  0xb5, 0x9e, 0x82, 0x3e, 0x1c, 0xe5, 0x22, 0xbf, 0x9b, 0xd5, 0xd9, 0xbe,
  0x50, 0x9c, 0x20, 0x3e, 0x5b, 0x64, 0x05, 0xbf, 0xd5, 0x7a, 0x21, 0x3e,
  0x2e, 0xb0, 0x4a, 0xbe, 0x81, 0x30, 0x56, 0x3e, 0x82, 0xe3, 0x44, 0x3e,
  0x68, 0x7b, 0x58, 0x3e, 0x20, 0x2b, 0x81, 0xbd, 0x5c, 0x40, 0x70, 0xbe,
  0x74, 0xe2, 0xe0, 0x3e, 0x6f, 0xe6, 0xb4, 0xbe, 0x78, 0x4f, 0x79, 0xbe,
  0xc3, 0x10, 0x2a, 0xbf, 0x83, 0x00, 0x8b, 0xbc, 0x0c, 0x51, 0x34, 0x3f,
  0x3d, 0x77, 0x22, 0x3f, 0x2b, 0x19, 0xd2, 0xbe, 0xb8, 0x7a, 0xba, 0xbd,
  0x56, 0xdf, 0xff, 0xff, 0x04, 0x00, 0x00, 0x00, 0x80, 0x00, 0x00, 0x00,
  0xfb, 0x3d, 0x8c, 0x3c, 0x82, 0xa9, 0x08, 0x3f, 0xbc, 0xd1, 0x6b, 0x3e,
  0xc0, 0x1b, 0x91, 0x3e, 0xcd, 0x5c, 0xa3, 0x3e, 0x45, 0xac, 0x93, 0x3e,
  0x7c, 0xf3, 0x5b, 0x3e, 0xd4, 0x32, 0xc8, 0x3e, 0xa3, 0x6d, 0xea, 0xbf,
  0xe4, 0x2d, 0x57, 0x3e, 0x9c, 0xb3, 0xea, 0x3e, 0xf5, 0x6a, 0x28, 0x3f,
  0x8a, 0x3e, 0x2a, 0x3e, 0x7f, 0x6e, 0xd4, 0x3e, 0xb0, 0xe2, 0x7e, 0x3e,
  0xf4, 0x82, 0xd8, 0x3e, 0xce, 0xbb, 0x84, 0x3d, 0x82, 0xcb, 0x86, 0x3e,
  0x1f, 0xf9, 0x8c, 0x3e, 0x8a, 0xa9, 0xcf, 0x3e, 0xb0, 0x45, 0x9f, 0x3e,
  0x00, 0xaa, 0x8c, 0x3e, 0x6d, 0x80, 0x30, 0x3e, 0x9c, 0x9c, 0x17, 0x3e,
  0x49, 0x12, 0x5f, 0x3e, 0x53, 0xbe, 0x17, 0x3e, 0x34, 0x67, 0x1e, 0xbe,
  0x88, 0xa2, 0x08, 0x3d, 0x6b, 0x5c, 0x0b, 0x3e, 0x13, 0x03, 0x46, 0x3e,
  0xc6, 0x71, 0xa3, 0x3e, 0xa7, 0x42, 0x02, 0x3f, 0xe2, 0xdf, 0xff, 0xff,
  0x04, 0x00, 0x00, 0x00, 0x04, 0x00, 0x00, 0x00, 0xd4, 0x0b, 0x58, 0xbe,
  0xf2, 0xdf, 0xff, 0xff, 0x04, 0x00, 0x00, 0x00, 0x00, 0x20, 0x00, 0x00,
  0xd5, 0xca, 0x0c, 0xbe, 0x71, 0x28, 0x52, 0xbe, 0x46, 0xd2, 0x15, 0x3e,
  0x00, 0x0b, 0xba, 0xbd, 0x85, 0xe2, 0x0c, 0xbd, 0x02, 0xf7, 0xf0, 0xbd,
  0x43, 0x82, 0x14, 0x3e, 0x2f, 0xe1, 0x25, 0x3e, 0xa8, 0xc2, 0xb5, 0xbd,
  0x80, 0x39, 0x94, 0x3c, 0x2a, 0x2e, 0xa6, 0xbe, 0xed, 0xf4, 0x6d, 0x3e,
  0x4e, 0x73, 0x89, 0xbe, 0x70, 0xa8, 0x29, 0x3e, 0xc7, 0x23, 0x0e, 0xbe,
  0x93, 0xe2, 0x91, 0xbf, 0x0e, 0xe8, 0x0a, 0xbe, 0xfe, 0xd1, 0xc9, 0xbe,
  0xc7, 0x49, 0x88, 0xbe, 0xa0, 0xcf, 0x9f, 0xbf, 0xf3, 0x0d, 0xb4, 0x3d,
  0x28, 0xd6, 0xfa, 0xbd, 0xe3, 0xf1, 0x02, 0x3e, 0xa9, 0xc3, 0x0e, 0x3d,
  0x20, 0xb4, 0x82, 0x3d, 0xa7, 0x0b, 0x3e, 0xbe, 0xd9, 0x69, 0x97, 0x3d,
  0xc8, 0xa1, 0x32, 0xbe, 0x74, 0x1e, 0x1f, 0x3f, 0xe4, 0x13, 0xd8, 0x3e,
  0x4d, 0xa3, 0xa3, 0xbd, 0x07, 0xd6, 0x3a, 0x3a, 0xf7, 0xc3, 0x06, 0xc0,
  0x48, 0x26, 0xb4, 0x3e, 0xd6, 0x54, 0x23, 0x3e, 0xd2, 0xcc, 0x17, 0xbd,
  0x08, 0x1b, 0x4e, 0x3e, 0xbf, 0x0d, 0x4d, 0xbe, 0xa0, 0x0e, 0x2d, 0xbe,
  0xde, 0xb0, 0xad, 0x3d, 0x78, 0x2a, 0xf5, 0xbd, 0xde, 0x28, 0x53, 0xbf,
  0xb3, 0x3f, 0x8b, 0xbe, 0x31, 0x46, 0x33, 0x3d, 0xbe, 0x9d, 0x1a, 0xbf,
  0x19, 0xd5, 0x22, 0xbf, 0x3f, 0x4b, 0xa3, 0xbf, 0x81, 0x95, 0x81, 0xbf,
  0xdc, 0xe4, 0x7c, 0xbd, 0xc0, 0x9a, 0x7d, 0xbe, 0x3c, 0x25, 0xfa, 0x3d,
  0xdc, 0xe8, 0xb5, 0xbe, 0x00, 0x18, 0x8c, 0xbd, 0x2e, 0x1d, 0xe3, 0xbd,
  0xd0, 0x7f, 0xf2, 0xbd, 0x58, 0xb1, 0x55, 0xbe, 0x12, 0x05, 0x93, 0xbd,
  0xe3, 0x4d, 0x44, 0x3e, 0xe5, 0xdc, 0x14, 0x3f, 0x18, 0x50, 0xdf, 0x3c,
  0xc9, 0x2a, 0x24, 0xc0, 0x68, 0xdc, 0x76, 0x3e, 0x88, 0x93, 0x7c, 0x3e,
  0xec, 0xa8, 0x5e, 0x3e, 0xe6, 0xbe, 0x2a, 0xbe, 0x74, 0x19, 0x7d, 0x3e,
  0xa8, 0x68, 0x92, 0xbc, 0xe3, 0x31, 0x10, 0xbe, 0x9a, 0xb6, 0x7e, 0x3e,
  0x18, 0x2a, 0x3c, 0xbd, 0xa3, 0x2a, 0x69, 0xbe, 0x68, 0x14, 0x4d, 0x3f,
  0xa7, 0x17, 0xa6, 0x3f, 0x1b, 0xc7, 0x06, 0x40, 0x9c, 0x54, 0x03, 0xbf,
  0x60, 0x56, 0x9d, 0x3e, 0x28, 0xd1, 0x41, 0x3e, 0xc8, 0x29, 0x13, 0xbf,
  0x8e, 0x30, 0x19, 0xbf, 0x5e, 0x8d, 0xb0, 0xbd, 0x10, 0xdb, 0x91, 0xbe,
  0x4b, 0x8e, 0x24, 0xbd, 0xfd, 0x92, 0xc1, 0x3d, 0x64, 0xed, 0x2c, 0x3f,
  0xea, 0x80, 0xa6, 0xbc, 0x4e, 0xa3, 0x06, 0xbe, 0x4b, 0x47, 0x89, 0xbf,
  0x41, 0x63, 0x4b, 0xbf, 0x4e, 0x2c, 0xc5, 0x3e, 0xd4, 0xb1, 0x38, 0x40,
  0xd6, 0x0d, 0x6d, 0x3e, 0x30, 0xe9, 0x9a, 0xbf, 0xea, 0xab, 0xb5, 0x3e,
  0x78, 0x43, 0x8c, 0xbf, 0xd5, 0xb3, 0x24, 0xbf, 0x42, 0x14, 0x3b, 0x3a,
  0xfc, 0xac, 0x8f, 0x3e, 0x06, 0xb9, 0x62, 0x3e, 0x38, 0xbd, 0x93, 0xbf,
  0x65, 0x70, 0x94, 0xbd, 0x5d, 0x71, 0x04, 0x40, 0xd9, 0x99, 0xb0, 0x3e,
  0x90, 0x8e, 0xf0, 0xbd, 0xe6, 0xca, 0xc8, 0x3d, 0x8c, 0x0f, 0xf4, 0xbe,
  0x40, 0x0c, 0xc2, 0x3e, 0xa9, 0xb7, 0xf5, 0xbd, 0xf5, 0x5f, 0x2a, 0x3e,
  0xaa, 0x6b, 0x9f, 0xbd, 0x62, 0x33, 0xb7, 0xbf, 0x4c, 0x97, 0xd1, 0xbe,
  0x11, 0xaa, 0xc8, 0xbe, 0x22, 0xe1, 0x46, 0x3c, 0x98, 0x29, 0x7e, 0x3e,
  0x17, 0x72, 0x02, 0xbe, 0x13, 0x69, 0x8a, 0x3d, 0xbe, 0xfa, 0x52, 0xbe,
  0x49, 0x0d, 0x35, 0xbe, 0x0b, 0x8d, 0x87, 0xbf, 0x5e, 0xec, 0x53, 0x3e,
  0x0f, 0x61, 0xce, 0x3f, 0xc7, 0x32, 0x99, 0x3f, 0x95, 0x38, 0x0e, 0xc0,
  0xbc, 0xdc, 0x30, 0x3b, 0x05, 0xc9, 0x54, 0x3e, 0xb7, 0x3d, 0xe5, 0x3e,
  0x62, 0x81, 0x9e, 0x3f, 0xa5, 0xdb, 0xac, 0x3f, 0x4b, 0xdf, 0x47, 0xbe,
  0xfc, 0xf4, 0xcf, 0xbe, 0x21, 0x35, 0xcc, 0x3d, 0xac, 0x55, 0x00, 0x3f,
  0xbc, 0x77, 0x53, 0x3e, 0x72, 0xe0, 0x77, 0xbe, 0x96, 0x0f, 0xeb, 0x3d,
  0x85, 0x8a, 0x89, 0x3e, 0x95, 0xe5, 0x69, 0x3f, 0xff, 0x0e, 0x3e, 0x40,
  0x30, 0x79, 0x7b, 0xbe, 0x3d, 0x37, 0xe9, 0xbe, 0xb0, 0x76, 0x92, 0xbe,
  0xd6, 0xe3, 0xff, 0x3d, 0x29, 0x74, 0x21, 0xbf, 0x8a, 0xfc, 0x2d, 0xbf,
  0x15, 0x06, 0x25, 0x3d, 0x6a, 0xd3, 0x8e, 0xbe, 0xa6, 0x8c, 0xdc, 0xbe,
  0x57, 0x87, 0x5c, 0x3f, 0x71, 0x02, 0x43, 0xbd, 0x4e, 0x6f, 0x90, 0xbe,
  0xb0, 0xd6, 0xdc, 0xbf, 0x32, 0x59, 0x43, 0xbe, 0x56, 0x74, 0xa3, 0xbe,
  0x66, 0x99, 0x67, 0x40, 0x75, 0xfe, 0x9e, 0x3d, 0xfe, 0xb6, 0xa5, 0xbf,
  0x67, 0xaa, 0xa8, 0x3e, 0xf8, 0x0f, 0x87, 0xbf, 0xed, 0xbf, 0x10, 0xbf,
  0xf1, 0x2e, 0x3d, 0x3d, 0x23, 0x1f, 0x80, 0x3d, 0x14, 0x12, 0x23, 0x3f,
  0x62, 0x63, 0x27, 0xc0, 0xdf, 0x07, 0x74, 0xbf, 0xfc, 0x9b, 0x3a, 0x40,
  0x1e, 0xb6, 0xce, 0xbd, 0x17, 0xbe, 0xf3, 0xbe, 0xde, 0x60, 0x4f, 0xbe,
  0xf2, 0x55, 0xd1, 0xbe, 0xf4, 0x75, 0xd6, 0xbc, 0x2c, 0x91, 0x84, 0xbe,
  0x49, 0xe7, 0x07, 0x3e, 0xf2, 0xed, 0x66, 0xbe, 0x18, 0x54, 0xe4, 0xbf,
  0x91, 0xa4, 0x01, 0xbf, 0xee, 0x81, 0x87, 0xbe, 0xa1, 0x39, 0x4d, 0xbc,
  0xa8, 0x2a, 0xcf, 0xbd, 0x93, 0xb4, 0x4e, 0xbd, 0x66, 0xaa, 0x16, 0xbd,
  0xde, 0xc1, 0xda, 0xbe, 0xc6, 0x56, 0xa6, 0x3e, 0xaf, 0x91, 0x13, 0xbf,
  0x59, 0x97, 0x7c, 0x3d, 0xd1, 0x3a, 0x2a, 0x40, 0xa7, 0x74, 0xc0, 0x3f,
  0xcc, 0xba, 0x03, 0xbf, 0x64, 0xb8, 0xc3, 0x3e, 0xab, 0x88, 0x94, 0x3e,
  0x77, 0xb4, 0x04, 0x3f, 0xe5, 0x8d, 0x18, 0x40, 0xcf, 0x2d, 0xfe, 0x3e,
  0xd9, 0x26, 0x2d, 0xbf, 0x2f, 0x5b, 0x45, 0x3d, 0x69, 0x17, 0xa2, 0x3e,
  0xe7, 0xe0, 0xd1, 0x3e, 0x75, 0xad, 0x01, 0x3d, 0xe2, 0x5c, 0xb3, 0xbe,
  0x0a, 0x04, 0xea, 0xbe, 0x2d, 0xd3, 0x61, 0x3d, 0x18, 0xdd, 0x78, 0x3f,
  0x0a, 0xd3, 0x12, 0x40, 0x76, 0xee, 0xbc, 0xbd, 0x83, 0x5b, 0x41, 0xbe,
  0x45, 0x20, 0x6c, 0xbe, 0xe7, 0xcd, 0x41, 0x3e, 0xd3, 0x30, 0x21, 0xbf,
  0x3c, 0x94, 0xe8, 0xbf, 0xed, 0x1c, 0xb4, 0xbe, 0x39, 0x11, 0xbc, 0xbc,
  0xe3, 0x23, 0xa3, 0xbf, 0x7c, 0xb3, 0xf1, 0x3e, 0x65, 0x91, 0xb3, 0xbd,
  0xe3, 0xc3, 0x3b, 0xbe, 0x83, 0xd6, 0xa7, 0xbf, 0x34, 0x7f, 0x11, 0xbf,
  0xbc, 0x30, 0xdd, 0xbe, 0xe9, 0xe4, 0x5c, 0x40, 0xad, 0xba, 0x25, 0xbd,
  0x0c, 0xbe, 0x9a, 0xbf, 0x53, 0x57, 0xa5, 0x3e, 0xcc, 0x4c, 0x89, 0xbf,
  0x0b, 0x62, 0xbe, 0xbe, 0x31, 0x23, 0x9b, 0xbe, 0xb9, 0x0c, 0x50, 0x3e,
  0x45, 0x44, 0x8f, 0xbe, 0xba, 0x66, 0x2e, 0xc0, 0x2e, 0xa0, 0xa3, 0xbe,
  0x33, 0x55, 0x26, 0x40, 0xd3, 0x47, 0x48, 0x3e, 0x60, 0x29, 0x75, 0xbe,
  0x9a, 0xa0, 0x04, 0xbe, 0xf1, 0x1f, 0x3a, 0xbe, 0xf5, 0x75, 0x38, 0x3e,
  0x4d, 0x5f, 0x82, 0xbd, 0x21, 0x07, 0xbf, 0x3d, 0x2f, 0x02, 0x13, 0xbf,
  0xca, 0xcd, 0x02, 0xc0, 0x24, 0x14, 0xde, 0xbe, 0x2d, 0x39, 0x58, 0xbe,
  0xfc, 0x84, 0xa0, 0xbe, 0x4d, 0x9e, 0x3c, 0xbd, 0x88, 0x2c, 0xde, 0xba,
  0xf4, 0x30, 0xe9, 0x3d, 0x8d, 0x3b, 0x87, 0xbd, 0x14, 0x7d, 0xa8, 0xbe,
  0x4f, 0x3c, 0x39, 0xbf, 0xa6, 0x0f, 0xa9, 0x3e, 0xc3, 0xa3, 0x01, 0x40,
  0x96, 0x2b, 0x8d, 0x3f, 0xba, 0x8c, 0x3f, 0xbf, 0xc5, 0x0c, 0x33, 0x3e,
  0x67, 0x45, 0xb2, 0x3e, 0x25, 0x8c, 0x0b, 0x3f, 0xbd, 0xee, 0x09, 0x40,
  0xda, 0x82, 0xd3, 0x3e, 0x98, 0xba, 0x86, 0xbf, 0x45, 0x4e, 0x11, 0xbd,
  0x27, 0x2f, 0xda, 0x3c, 0xfb, 0x87, 0xbc, 0xc0, 0x04, 0x3c, 0x42, 0x3f,
  0xfd, 0x22, 0x0e, 0xbd, 0x3f, 0xc2, 0xc6, 0xbe, 0xd1, 0x13, 0x5a, 0x3f,
  0xff, 0x68, 0x00, 0xbf, 0x3c, 0x5a, 0xfc, 0xbe, 0xfe, 0x62, 0x1c, 0xbf,
  0x76, 0x04, 0xd5, 0x3e, 0x99, 0x62, 0xb8, 0x3e, 0xd1, 0x00, 0x2c, 0xbf,
  0x58, 0x7c, 0x4a, 0x3e, 0x8d, 0xb8, 0x92, 0x3e, 0x1d, 0x47, 0xf2, 0xbe,
  0x41, 0x20, 0x6f, 0x3e, 0x20, 0x55, 0x21, 0x3d, 0x0b, 0x01, 0x67, 0xc0,
  0x9b, 0xcb, 0x9b, 0xbd, 0x19, 0x07, 0xa5, 0x3f, 0xcb, 0x50, 0xdf, 0x3d,
  0xbd, 0x4e, 0x99, 0xbf, 0x02, 0x2a, 0x38, 0x3f, 0xd8, 0x39, 0xd1, 0x3b,
  0xa7, 0x31, 0xaa, 0xbe, 0x6b, 0x24, 0x6f, 0xc0, 0x31, 0xa4, 0x5a, 0x3f,
  0xd8, 0x87, 0xa5, 0x3f, 0x51, 0xb8, 0x42, 0xc0, 0x5c, 0x04, 0x52, 0x3d,
  0xd4, 0x29, 0xa7, 0x3e, 0x17, 0x9c, 0xc9, 0x3e, 0x51, 0xdf, 0x71, 0xbe,
  0x18, 0x7c, 0x01, 0xbf, 0x73, 0x50, 0x01, 0xbe, 0xf5, 0xd6, 0xa8, 0x3e,
  0x28, 0x05, 0xa0, 0xbe, 0x93, 0xc2, 0x0f, 0x3e, 0xcd, 0xd6, 0x73, 0x3f,
  0xfc, 0x00, 0x9c, 0x3e, 0x86, 0x21, 0xd4, 0x3d, 0xb1, 0x4a, 0x0c, 0x3d,
  0x7f, 0xc5, 0xf8, 0xbe, 0xd9, 0xdf, 0x1a, 0xbf, 0x97, 0x5e, 0xe8, 0x3f,
  0xa5, 0xbf, 0xd0, 0xbe, 0x5e, 0xd6, 0x27, 0xbe, 0x41, 0x3d, 0x3c, 0xbf,
  0xcd, 0x63, 0x77, 0xbd, 0x02, 0x91, 0x33, 0x3d, 0x61, 0xc0, 0xcd, 0xbf,
  0x26, 0x9a, 0xab, 0xbe, 0xa6, 0x2f, 0xf3, 0x3f, 0xaa, 0xb8, 0xcf, 0xbe,
  0x80, 0x09, 0xc7, 0xbd, 0x95, 0x09, 0xb1, 0x3e, 0x4e, 0xbd, 0xa1, 0x3d,
  0xb4, 0x95, 0x8d, 0x3e, 0xff, 0x74, 0xf7, 0xbd, 0x8a, 0xa6, 0xae, 0xbf,
  0xe1, 0x74, 0x04, 0x3e, 0x53, 0x46, 0x7e, 0xbd, 0xb8, 0x14, 0xab, 0x3f,
  0xfd, 0x5b, 0x3b, 0x3e, 0x8f, 0x34, 0xbd, 0xbe, 0x95, 0xae, 0x9d, 0xbe,
  0x3e, 0x8c, 0x33, 0xc0, 0xd0, 0x52, 0x99, 0x3f, 0x30, 0x07, 0x6c, 0x3e,
  0x32, 0xb5, 0x4c, 0xc0, 0x9f, 0x69, 0x21, 0xbe, 0x98, 0xc9, 0x48, 0x3e,
  0x68, 0x76, 0x00, 0x3f, 0x7c, 0x40, 0x81, 0xc0, 0x0c, 0xf6, 0x5d, 0xbe,
  0xf1, 0xef, 0x81, 0xbe, 0xd1, 0x8f, 0x42, 0xbf, 0x9e, 0xce, 0x31, 0x3e,
  0x2d, 0x8b, 0x23, 0xc0, 0x3a, 0xca, 0x9d, 0xbe, 0x82, 0x6a, 0x0c, 0xbe,
  0x39, 0x3f, 0x34, 0xbf, 0x8b, 0x31, 0x30, 0xbe, 0x23, 0xc4, 0x80, 0x3f,
  0x18, 0x49, 0xb0, 0xbc, 0x59, 0x9b, 0x20, 0xbf, 0x70, 0xbd, 0x9e, 0xc0,
  0x6b, 0xb4, 0x60, 0x3e, 0xbb, 0x3b, 0x4b, 0x3f, 0xfe, 0xc3, 0x82, 0x3f,
  0x51, 0xf1, 0xb8, 0xbe, 0xac, 0x6c, 0x2a, 0x40, 0x44, 0x22, 0x85, 0xbe,
  0xa3, 0x6d, 0x24, 0x3d, 0xe1, 0x33, 0xb1, 0x3e, 0x19, 0x65, 0x3d, 0xc1,
  0x87, 0x3b, 0x8c, 0x40, 0xd4, 0x3c, 0x13, 0x3f, 0xf3, 0x32, 0x85, 0x3e,
  0xba, 0x8d, 0x56, 0xc1, 0x58, 0xc8, 0x6e, 0x3c, 0x6a, 0xb4, 0xee, 0xbe,
  0x45, 0xbe, 0x0c, 0x3f, 0x5f, 0xf6, 0x06, 0xbd, 0xbf, 0xbd, 0xa2, 0x3f,
  0xfe, 0x7d, 0x12, 0xbe, 0xcb, 0xb2, 0xd0, 0xbe, 0x99, 0xdc, 0x10, 0x3e,
  0x1b, 0x54, 0x8b, 0x3f, 0x1c, 0xba, 0x34, 0x3e, 0x3e, 0xbf, 0x31, 0xbf,
  0x6b, 0xdc, 0x07, 0x3e, 0x7d, 0x4b, 0x5e, 0xbe, 0x15, 0x22, 0x81, 0x3e,
  0x7e, 0x6a, 0xa1, 0xbf, 0xd1, 0xa3, 0xc6, 0x3f, 0xf0, 0x49, 0x4e, 0x3d,
  0xfd, 0x81, 0x39, 0x3f, 0xc1, 0x5d, 0x8e, 0x3e, 0xa5, 0x11, 0x22, 0xbe,
  0xe0, 0xaf, 0x60, 0xbf, 0x5c, 0xe7, 0x2e, 0x3f, 0x76, 0xd6, 0x88, 0x3e,
  0xe4, 0x1b, 0xc8, 0xbe, 0x16, 0x69, 0xc9, 0x3e, 0x14, 0x12, 0x1b, 0xbe,
  0x61, 0x7e, 0x6a, 0xbf, 0x9f, 0x5b, 0x71, 0xbe, 0x4a, 0x32, 0xaa, 0x3e,
  0xbc, 0x0d, 0x0e, 0xc0, 0xb8, 0x6e, 0xaf, 0x3f, 0x34, 0x7c, 0x01, 0x3d,
  0x3b, 0xae, 0x22, 0x3e, 0xcc, 0x62, 0x2a, 0x3f, 0x88, 0xae, 0xd9, 0xbd,
  0x5f, 0xcd, 0x8c, 0xbe, 0x37, 0x56, 0x9e, 0xbe, 0x71, 0x64, 0x1e, 0x3f,
  0xce, 0x76, 0x56, 0xbe, 0xe5, 0x87, 0x2f, 0xbf, 0x08, 0xac, 0x23, 0x3e,
  0x48, 0xa6, 0x97, 0xbe, 0x00, 0xdf, 0x8e, 0xbd, 0x1e, 0x5b, 0x9d, 0xbe,
  0xee, 0xcb, 0x54, 0xbe, 0xad, 0x89, 0xf0, 0x3e, 0x1c, 0xac, 0x65, 0xbf,
  0x9a, 0x71, 0x19, 0x3f, 0x1b, 0xb8, 0x55, 0xbf, 0xda, 0xf3, 0x30, 0xbe,
  0x05, 0xfb, 0x10, 0x3f, 0xc6, 0xa2, 0xa4, 0x3f, 0x81, 0xdc, 0xe9, 0x3e,
  0xb9, 0x44, 0x82, 0xc0, 0x1f, 0x30, 0x81, 0xbf, 0x6d, 0xcf, 0x96, 0xbf,
  0xca, 0xb7, 0xa9, 0xbe, 0x65, 0x2a, 0x63, 0x3e, 0x54, 0xae, 0x54, 0x3e,
  0xb8, 0xe5, 0x04, 0x3e, 0xf0, 0x5b, 0x12, 0x3e, 0x44, 0xce, 0xf7, 0xbc,
  0x9c, 0xb9, 0x94, 0x3f, 0x20, 0x40, 0x0e, 0x3f, 0x24, 0xbd, 0x11, 0xbe,
  0x79, 0xe5, 0x35, 0xbe, 0x75, 0xec, 0x5f, 0x3f, 0x0d, 0xd0, 0x84, 0xbf,
  0x2b, 0x5e, 0xda, 0xbc, 0xf3, 0x33, 0x69, 0xbe, 0xdd, 0xd9, 0x89, 0xbf,
  0x09, 0x9c, 0x29, 0xbe, 0x44, 0x53, 0x87, 0x3f, 0xd0, 0x7c, 0xa3, 0xbf,
  0x5c, 0xdc, 0x44, 0x3e, 0x6d, 0x4f, 0xa3, 0x3d, 0xbc, 0x94, 0xd3, 0x3d,
  0xd3, 0x2e, 0xb4, 0xbd, 0xe6, 0xa4, 0x90, 0xbf, 0x7f, 0xd1, 0x91, 0xbe,
  0x68, 0x08, 0xb8, 0x3e, 0x33, 0xe1, 0x0c, 0xbd, 0x38, 0x3e, 0x92, 0x3e,
  0x7e, 0x46, 0x87, 0x3f, 0x96, 0x15, 0x2f, 0xc0, 0x19, 0xa5, 0x7b, 0xbe,
  0xc5, 0xaa, 0x85, 0xbf, 0x15, 0x53, 0xdb, 0x3e, 0xf1, 0xa9, 0xb5, 0x3f,
  0x5a, 0xb6, 0xf3, 0x3c, 0x54, 0x35, 0xa0, 0x3f, 0xdf, 0xab, 0x0f, 0x3e,
  0x95, 0x0f, 0xcd, 0x3d, 0x0b, 0xc4, 0x19, 0x3e, 0x98, 0xc9, 0x06, 0xbe,
  0x9c, 0x94, 0x4e, 0xc0, 0xb3, 0xbd, 0xae, 0xc0, 0x07, 0x58, 0xb6, 0xbd,
  0x06, 0x13, 0x4c, 0xbe, 0x77, 0x3b, 0xdb, 0xbf, 0x3a, 0xdc, 0xa0, 0xbe,
  0x48, 0xb0, 0xf6, 0xbe, 0x92, 0xc0, 0xa4, 0xbd, 0xd0, 0x26, 0x92, 0x3e,
  0x7f, 0xc9, 0x9a, 0xbf, 0x57, 0x19, 0x1d, 0xc0, 0xf0, 0x10, 0x03, 0xbf,
  0x40, 0x27, 0x60, 0xbe, 0x08, 0x07, 0xef, 0xbe, 0x8a, 0x4d, 0xb5, 0x3f,
  0x9b, 0x23, 0x82, 0x3d, 0x65, 0xf9, 0x4b, 0xbe, 0x09, 0x9f, 0x8c, 0xbf,
  0x33, 0x26, 0x15, 0xbe, 0xd4, 0x03, 0x34, 0xbf, 0x14, 0xdb, 0xca, 0xbf,
  0x59, 0x6f, 0x54, 0xbe, 0x7b, 0x35, 0xad, 0x3e, 0x87, 0x5d, 0x3d, 0x3f,
  0xee, 0xe6, 0x9d, 0xbe, 0x70, 0x36, 0x6c, 0x3e, 0xcb, 0x20, 0xb6, 0xbe,
  0x9e, 0x71, 0x48, 0x3d, 0x5b, 0x50, 0xe0, 0xbe, 0x52, 0x6c, 0x04, 0xc0,
  0x91, 0x93, 0xc7, 0xbe, 0x86, 0xea, 0xd4, 0xbf, 0x3c, 0x40, 0xbe, 0xbe,
  0x31, 0xdb, 0x2a, 0xbf, 0x3d, 0x2f, 0x7b, 0xbe, 0x15, 0x1f, 0xa4, 0xbe,
  0xe1, 0x8c, 0xfa, 0x3d, 0x51, 0x9f, 0x99, 0xc0, 0xdb, 0xd4, 0x13, 0x40,
  0x0f, 0xc5, 0x68, 0xbd, 0xff, 0x61, 0x4a, 0xbe, 0x96, 0xf1, 0xe6, 0xbe,
  0x7e, 0x3c, 0xa1, 0xbc, 0xff, 0xda, 0x74, 0x3f, 0xd0, 0x79, 0x9f, 0x3d,
  0x97, 0x30, 0x9e, 0xc0, 0xfe, 0xd6, 0x1b, 0x3e, 0xda, 0xf5, 0x22, 0xbf,
  0xf9, 0xaf, 0x5b, 0xbf, 0x6b, 0x9b, 0x0c, 0xbf, 0x69, 0xa0, 0x00, 0xbe,
  0x7e, 0x48, 0xdd, 0xbf, 0x9b, 0xdf, 0x80, 0xbe, 0xad, 0xab, 0x23, 0xbf,
  0x28, 0x4c, 0x12, 0x3e, 0xa7, 0x16, 0x8f, 0x3e, 0x9f, 0x65, 0xd3, 0x3f,
  0x5a, 0x52, 0xeb, 0xbf, 0xd0, 0x52, 0xb5, 0x3e, 0x31, 0x91, 0x02, 0xbf,
  0x1a, 0xa3, 0x18, 0xbd, 0x1a, 0xe7, 0x3a, 0x3d, 0xa8, 0x06, 0x8e, 0x3d,
  0x87, 0x73, 0x18, 0x3e, 0x43, 0x6c, 0xce, 0xbd, 0x20, 0x09, 0x3e, 0xbe,
  0x07, 0xb2, 0xb0, 0xbd, 0xfc, 0xcb, 0x1e, 0x3d, 0xae, 0xe8, 0x1b, 0xbe,
  0xdc, 0x3a, 0x68, 0x3c, 0xab, 0xa5, 0xb0, 0xbe, 0x08, 0x98, 0x73, 0xbd,
  0xb1, 0xd1, 0x6b, 0xbe, 0x30, 0x1c, 0x23, 0x3e, 0xd8, 0xa5, 0x55, 0xbe,
  0x0f, 0x25, 0x01, 0x3e, 0x1b, 0x21, 0x5e, 0xbc, 0x48, 0xd3, 0x73, 0x3d,
  0xfb, 0x23, 0x7e, 0xbe, 0xb5, 0x02, 0x10, 0x3d, 0x5c, 0x42, 0x68, 0xbf,
  0x5b, 0x39, 0xb0, 0x3e, 0x43, 0x7a, 0xbe, 0xbd, 0xd0, 0x6b, 0x60, 0xbe,
  0x35, 0x2a, 0x3d, 0x3e, 0x43, 0x85, 0xab, 0xbe, 0xc3, 0x2b, 0x2c, 0xbc,
  0xe8, 0x35, 0x34, 0x3c, 0xe2, 0xd4, 0x2d, 0xbe, 0x1c, 0x4b, 0x80, 0xbe,
  0x69, 0x3a, 0x27, 0xbf, 0xf8, 0x41, 0xb5, 0x3d, 0x2f, 0x3d, 0x32, 0xbf,
  0x6a, 0x8d, 0xa8, 0xbe, 0xb8, 0xc9, 0x4d, 0x3e, 0x19, 0x34, 0x44, 0xbe,
  0x93, 0x5e, 0x08, 0xbe, 0x88, 0xeb, 0x34, 0xbf, 0x67, 0xe2, 0x9b, 0xbd,
  0xd9, 0x1d, 0x14, 0xbf, 0xf5, 0x3b, 0x61, 0xbf, 0xef, 0x99, 0x45, 0xbe,
  0x60, 0xbe, 0x62, 0x3e, 0xfb, 0x89, 0xc8, 0x3d, 0x8c, 0x5f, 0x93, 0x3e,
  0x06, 0xb1, 0x31, 0xbe, 0x86, 0x9b, 0xca, 0xbe, 0x14, 0xf1, 0x83, 0x3e,
  0xa7, 0x40, 0x48, 0xbe, 0x38, 0x2b, 0xb2, 0xbd, 0x06, 0xa5, 0x75, 0xbf,
  0xfb, 0x94, 0x90, 0x3d, 0x43, 0x83, 0x4d, 0x3e, 0xa5, 0xc4, 0x2d, 0xbe,
  0x6e, 0x61, 0x17, 0xbe, 0x69, 0x74, 0xf6, 0x3d, 0x0b, 0x37, 0xdb, 0x3d,
  0x20, 0xd4, 0x89, 0x3e, 0xed, 0xfa, 0xdf, 0xbd, 0xb7, 0x2d, 0xe3, 0xbf,
  0x87, 0x5e, 0xaf, 0xbd, 0x5f, 0x0e, 0x39, 0x3e, 0xa5, 0xe7, 0xfa, 0x3d,
  0x9e, 0x30, 0xe0, 0x3e, 0xce, 0xb5, 0x7f, 0xbf, 0x4d, 0x88, 0xd7, 0xbe,
  0xe0, 0x10, 0x38, 0xbe, 0xe0, 0x6e, 0xe2, 0x3e, 0xe8, 0x17, 0x92, 0x3e,
  0xdc, 0xf3, 0x19, 0xbf, 0xb3, 0x6f, 0x1e, 0x3e, 0xc3, 0xba, 0x73, 0xbf,
  0x8f, 0x01, 0x9c, 0xc0, 0x98, 0x04, 0xfa, 0x3e, 0xa7, 0x7c, 0x52, 0x3f,
  0xc2, 0x8d, 0x21, 0xbf, 0xdc, 0xd6, 0x6e, 0x3e, 0xa9, 0x59, 0x8d, 0x3e,
  0x86, 0x42, 0xbc, 0xbf, 0x5c, 0x2c, 0x1a, 0xc0, 0xce, 0xe8, 0xa7, 0xbd,
  0x06, 0xbd, 0x59, 0xbe, 0xc0, 0xbe, 0x0c, 0xbe, 0x90, 0x68, 0x83, 0xbe,
  0xd1, 0x58, 0x2c, 0x3f, 0xf0, 0x90, 0xd2, 0x3f, 0x6e, 0x56, 0x0f, 0x3f,
  0xc2, 0x30, 0x3e, 0x3f, 0xbf, 0x05, 0x8e, 0xc0, 0x5f, 0x8b, 0x1a, 0x3f,
  0x6e, 0xff, 0x83, 0x3f, 0xb6, 0x63, 0xeb, 0x3e, 0xbf, 0x44, 0x95, 0x3f,
  0x30, 0x0e, 0xf3, 0x3d, 0xbc, 0xed, 0x18, 0xbf, 0x64, 0x61, 0x60, 0x3e,
  0xe1, 0x23, 0x18, 0xbf, 0x09, 0xb1, 0x50, 0x40, 0xdd, 0x55, 0x04, 0xbd,
  0x5f, 0xfe, 0x7b, 0xc0, 0x81, 0x44, 0x4a, 0xbd, 0x15, 0xe1, 0xaf, 0xbe,
  0x47, 0xed, 0x3a, 0xbf, 0x21, 0xe0, 0x57, 0x3f, 0xcc, 0xfe, 0x4b, 0x3e,
  0x15, 0x39, 0x00, 0xbd, 0x86, 0xc5, 0x03, 0xbf, 0xd4, 0xea, 0xd7, 0xbe,
  0x31, 0xb1, 0xa1, 0x3e, 0x10, 0x2b, 0x92, 0x3f, 0xce, 0xb6, 0x8f, 0xbe,
  0x0a, 0xc6, 0x36, 0xbe, 0x1b, 0x2c, 0xb6, 0x3e, 0xc4, 0x9e, 0xcb, 0xbd,
  0x14, 0x56, 0xc1, 0x3e, 0x86, 0x21, 0x71, 0x3e, 0xc4, 0x7a, 0x0e, 0xc0,
  0xe5, 0x97, 0x91, 0x3f, 0x5e, 0xef, 0x28, 0x3f, 0xd5, 0x42, 0x18, 0xc0,
  0x72, 0xf0, 0x86, 0xbf, 0x5d, 0x58, 0x6c, 0x3f, 0x26, 0x60, 0x66, 0xbe,
  0xa5, 0x4c, 0x67, 0x3e, 0xf9, 0x4b, 0x0c, 0xbf, 0x45, 0x03, 0x7e, 0xc0,
  0xcd, 0xd4, 0xc1, 0xbe, 0xa9, 0xd0, 0xc4, 0xbe, 0x57, 0x6b, 0x15, 0xbf,
  0x51, 0x11, 0x89, 0x3d, 0x41, 0x5c, 0x8f, 0x3e, 0x83, 0xe6, 0x21, 0x3e,
  0x07, 0x36, 0xde, 0x3d, 0x8c, 0x94, 0xe0, 0xbd, 0x5a, 0xc5, 0x2f, 0xbd,
  0x26, 0xa4, 0x21, 0x3f, 0x93, 0xf9, 0x72, 0x40, 0x0b, 0x0d, 0x54, 0xbf,
  0x22, 0xb8, 0x75, 0x3d, 0xce, 0x89, 0xa4, 0xbd, 0x40, 0x53, 0xd3, 0xbe,
  0xbb, 0x86, 0x95, 0xbe, 0x38, 0x42, 0x2f, 0xbf, 0xe7, 0x6d, 0x2e, 0xbe,
  0x05, 0x97, 0x23, 0xbe, 0xf3, 0x4f, 0x1a, 0xbc, 0x7b, 0xd8, 0x70, 0x3e,
  0xea, 0xb3, 0x62, 0x3e, 0x12, 0x4d, 0x26, 0xbf, 0x86, 0x37, 0x04, 0xbf,
  0x5c, 0xcc, 0x45, 0x3e, 0x6c, 0x41, 0x85, 0xbe, 0xed, 0x88, 0xa4, 0x40,
  0xb0, 0xab, 0x98, 0x3d, 0xe2, 0xed, 0x9b, 0xbf, 0x37, 0xbd, 0x06, 0x3e,
  0x6d, 0x47, 0xcb, 0xbf, 0xcc, 0xf9, 0x25, 0xbf, 0x4b, 0x0b, 0x06, 0xbc,
  0x1d, 0xb6, 0x18, 0x3e, 0x4a, 0xc6, 0xe3, 0xbb, 0x3e, 0x69, 0x0d, 0xc0,
  0xfd, 0x89, 0x2e, 0xbf, 0xac, 0xb9, 0x81, 0x40, 0xe3, 0xb4, 0xa4, 0x3c,
  0xac, 0x8d, 0xd7, 0x3e, 0xf8, 0x5d, 0x0f, 0x3e, 0x9c, 0x39, 0x47, 0xbf,
  0x08, 0x41, 0xc9, 0x3e, 0x7d, 0xde, 0xa4, 0xbc, 0xca, 0x13, 0x77, 0x3e,
  0x2b, 0x66, 0x0a, 0xbf, 0x01, 0x3d, 0x61, 0xbf, 0xcd, 0x6d, 0x47, 0xbf,
  0xc4, 0x99, 0xea, 0xbe, 0x7c, 0xec, 0x36, 0x3e, 0x22, 0x31, 0xad, 0xbc,
  0x4f, 0xbd, 0x8b, 0x3b, 0x92, 0x0c, 0xc9, 0x3e, 0x94, 0x72, 0x44, 0x3d,
  0x6c, 0x58, 0xa5, 0xbe, 0x8a, 0x6a, 0xd7, 0xbe, 0x91, 0x9e, 0xd3, 0x3d,
  0x56, 0xec, 0x71, 0x40, 0x51, 0x45, 0xde, 0x3e, 0xb6, 0x06, 0xa8, 0xbe,
  0x77, 0x72, 0x70, 0xbd, 0xb6, 0x0e, 0x95, 0x3e, 0x97, 0x9e, 0xa8, 0x3e,
  0xdf, 0x54, 0x71, 0x40, 0x3a, 0xfc, 0x43, 0x3f, 0x8f, 0x56, 0xf7, 0xbe,
  0x94, 0x6d, 0x71, 0xbf, 0xac, 0x0e, 0x06, 0xbd, 0x8e, 0xdd, 0xf8, 0x3e,
  0x8d, 0xc9, 0x36, 0xbd, 0xfc, 0x7e, 0x44, 0xbf, 0x28, 0x8b, 0xef, 0xbe,
  0x57, 0xc4, 0xf0, 0x3e, 0xb2, 0x2f, 0xc7, 0x3f, 0x84, 0x50, 0xb6, 0x40,
  0x4e, 0xa8, 0xbd, 0xbf, 0xf4, 0xf4, 0x0c, 0xbe, 0xd4, 0x6a, 0xc1, 0xbd,
  0x34, 0xb0, 0x43, 0xbf, 0x46, 0x87, 0x15, 0xbf, 0x1c, 0xa8, 0x63, 0xbf,
  0x4e, 0xc9, 0x9a, 0xbe, 0x1a, 0xae, 0x6a, 0xbd, 0x6b, 0xca, 0x76, 0xbe,
  0x70, 0xfb, 0x06, 0x3f, 0xff, 0xdb, 0xcd, 0x3d, 0x9f, 0xfe, 0x0d, 0xbf,
  0x9b, 0xf3, 0x24, 0xbf, 0xcc, 0xbc, 0x94, 0xbe, 0x3b, 0x51, 0xc9, 0xbe,
  0x21, 0x27, 0xc9, 0x40, 0x92, 0x22, 0xba, 0x3e, 0x12, 0x95, 0xb4, 0xbf,
  0xbd, 0x90, 0xff, 0x3e, 0x5e, 0x7d, 0xc8, 0xbe, 0x50, 0x40, 0xff, 0xbe,
  0xb4, 0x10, 0x9c, 0x3d, 0x42, 0xa1, 0xcf, 0x3e, 0x90, 0x70, 0x01, 0x3f,
  0x78, 0x06, 0x1b, 0xc0, 0xab, 0x23, 0x4b, 0x3e, 0x18, 0x72, 0x93, 0x40,
  0xee, 0xf6, 0x90, 0x3e, 0x87, 0x20, 0x0d, 0xbf, 0x22, 0x77, 0x54, 0xbd,
  0x32, 0x62, 0x75, 0xbf, 0x53, 0x41, 0xe6, 0x3e, 0xe5, 0x07, 0xc0, 0xbe,
  0xe7, 0x3e, 0xf3, 0x3e, 0xcb, 0xdb, 0xa4, 0xbe, 0xd1, 0x38, 0xa9, 0xbf,
  0x02, 0xb3, 0xd6, 0xbe, 0x97, 0xb8, 0x5c, 0xbd, 0x60, 0x56, 0x94, 0x3d,
  0xe5, 0x45, 0x77, 0xbd, 0xce, 0x9c, 0x47, 0xbe, 0x70, 0xfc, 0x53, 0x3e,
  0xcc, 0xae, 0x8f, 0xbe, 0x30, 0x9b, 0x18, 0xbf, 0x82, 0xe3, 0x67, 0xbf,
  0xe3, 0xb6, 0x22, 0x3d, 0x7b, 0x6d, 0xa0, 0x40, 0xda, 0xa3, 0xa6, 0x3f,
  0xa9, 0x60, 0xa5, 0xbf, 0x93, 0x79, 0xbf, 0x3e, 0xec, 0x39, 0x4a, 0x3e,
  0xef, 0x15, 0xb9, 0xbd, 0xd9, 0x7e, 0x8b, 0x40, 0x5d, 0xe4, 0x81, 0x3f,
  0x52, 0x71, 0xd5, 0xbf, 0xab, 0xc0, 0xf9, 0xbe, 0x16, 0xa9, 0x50, 0xbe,
  0xdd, 0xcf, 0x10, 0xbf, 0x9a, 0xb9, 0x1f, 0x3f, 0xca, 0x30, 0x11, 0xc0,
  0x6e, 0xb4, 0x4f, 0xbf, 0xe2, 0x74, 0x93, 0xbd, 0xb7, 0x3a, 0x35, 0xbf,
  0x67, 0x49, 0x2c, 0xbe, 0xc9, 0x8d, 0x6c, 0x3d, 0x5e, 0x64, 0x9e, 0x3f,
  0x4d, 0xd2, 0xce, 0x3e, 0x2a, 0xc0, 0x29, 0xbe, 0xda, 0xb5, 0xe1, 0x3e,
  0x30, 0xce, 0x46, 0x3f, 0x5a, 0xc7, 0xbb, 0xbe, 0xe8, 0xae, 0x88, 0x3e,
  0x02, 0x47, 0x0a, 0x3d, 0x42, 0xfe, 0x48, 0xbe, 0xb0, 0xa4, 0x36, 0x3e,
  0xc7, 0xa5, 0x9a, 0x3e, 0x7e, 0xd3, 0xf0, 0xbd, 0x88, 0x56, 0x75, 0xbe,
  0x36, 0x21, 0xa5, 0x3f, 0x48, 0xd6, 0xf1, 0xbe, 0xaa, 0x88, 0x25, 0xbe,
  0xf3, 0xa2, 0x0e, 0x3e, 0xaf, 0xa0, 0x81, 0x3d, 0x2c, 0x77, 0x4d, 0x3f,
  0x7a, 0x78, 0x86, 0x3e, 0x5d, 0x29, 0xb5, 0x3d, 0x7c, 0x59, 0x6f, 0x3e,
  0x4d, 0x08, 0x82, 0x3f, 0xac, 0x08, 0xad, 0x3f, 0x3a, 0xa8, 0x87, 0xbe,
  0xc0, 0xba, 0xc1, 0xbe, 0x86, 0xd7, 0x43, 0x3f, 0x14, 0x90, 0xd2, 0x3d,
  0xfa, 0x3e, 0x20, 0x3d, 0xb5, 0xfb, 0xe8, 0x3e, 0x2d, 0x6c, 0x48, 0x3e,
  0x17, 0x07, 0x6f, 0xbf, 0x96, 0x9d, 0xa0, 0xbe, 0x90, 0x2f, 0x98, 0x3d,
  0xb6, 0x1f, 0x8d, 0xbe, 0xdc, 0xdc, 0xe4, 0x3e, 0xb9, 0xab, 0xad, 0x3d,
  0x5f, 0x7a, 0xb7, 0xbf, 0xed, 0xac, 0x55, 0x3b, 0xc3, 0x0a, 0x2b, 0x3f,
  0xaf, 0xe7, 0x98, 0x3e, 0x67, 0xc4, 0x3f, 0x3e, 0x13, 0x36, 0xa1, 0x3e,
  0xbb, 0xbc, 0x02, 0xc0, 0x60, 0x64, 0x04, 0xbd, 0x0a, 0x07, 0x95, 0xbe,
  0xad, 0xe9, 0xb5, 0xbf, 0x7d, 0xb4, 0x84, 0xbf, 0xa2, 0x70, 0x7b, 0x3e,
  0xa0, 0xbc, 0x9f, 0x3e, 0x96, 0x1c, 0x79, 0xbd, 0x3c, 0x46, 0xe9, 0xbe,
  0xbf, 0xa4, 0x88, 0xbf, 0xf4, 0x99, 0xb5, 0x3e, 0xaf, 0xad, 0x23, 0x3f,
  0x3f, 0x7b, 0xa2, 0x3e, 0xe3, 0x7e, 0x93, 0x3d, 0xf4, 0x91, 0xd2, 0xbf,
  0x9e, 0x03, 0x25, 0x3f, 0x59, 0x7c, 0x3f, 0xbf, 0x16, 0x22, 0x8d, 0xbf,
  0xa6, 0x6c, 0x34, 0xbf, 0x0f, 0xbd, 0xd5, 0xbf, 0xf7, 0x88, 0xd5, 0x3e,
  0x43, 0xc1, 0xda, 0xbf, 0xc7, 0xdd, 0x9f, 0xbe, 0x76, 0x45, 0x9e, 0xbf,
  0x3a, 0xaa, 0x25, 0x3f, 0xf8, 0xb3, 0x01, 0xbc, 0xc1, 0xa5, 0xe8, 0x3e,
  0x84, 0xd7, 0x4b, 0xbf, 0xee, 0xfe, 0x98, 0x3c, 0x56, 0xc3, 0x04, 0x3e,
  0xba, 0xaa, 0x9b, 0x3d, 0xaa, 0x11, 0x6b, 0x3f, 0xef, 0xc3, 0x0f, 0x3f,
  0x09, 0xb9, 0x8c, 0xbf, 0xcd, 0x84, 0xb9, 0xbf, 0xb7, 0xde, 0x9a, 0xbf,
  0xe2, 0x92, 0xb2, 0xbd, 0xf9, 0x1f, 0xd0, 0xbe, 0xef, 0xe3, 0xbb, 0xbd,
  0xf1, 0x78, 0xf3, 0x3f, 0xd4, 0xd5, 0xdb, 0xbf, 0x6c, 0x76, 0xad, 0x3e,
  0x8d, 0x7b, 0x2c, 0x3e, 0x5c, 0xbd, 0xb9, 0xc0, 0x2b, 0x24, 0x8b, 0x40,
  0xad, 0x27, 0x46, 0xbf, 0x12, 0xc6, 0x0d, 0xc0, 0x83, 0xf9, 0xdb, 0xbf,
  0x1a, 0x53, 0x01, 0xbe, 0x44, 0x82, 0xa8, 0xbc, 0xa8, 0x8a, 0x42, 0x3f,
  0xdc, 0x51, 0xb6, 0x3e, 0xf8, 0x8d, 0x8b, 0x3d, 0x5f, 0x0a, 0xf1, 0xbd,
  0x3b, 0x24, 0xa5, 0xc0, 0xf9, 0x21, 0x64, 0x3f, 0x30, 0xed, 0x60, 0x3f,
  0x77, 0xc1, 0x42, 0xbf, 0xc8, 0x74, 0x7d, 0xbf, 0xeb, 0x8c, 0x37, 0x3f,
  0xf1, 0xce, 0x5e, 0xbe, 0xfd, 0xa1, 0xc7, 0xbc, 0x2f, 0xe4, 0x3b, 0x3f,
  0x52, 0x88, 0x82, 0x3f, 0x49, 0x35, 0x88, 0x3f, 0x55, 0xba, 0xb6, 0x3e,
  0xdb, 0xd5, 0xa4, 0xbf, 0x63, 0xbe, 0x75, 0xc0, 0xd5, 0x65, 0xb7, 0x3e,
  0x4e, 0x8c, 0x06, 0x3f, 0x2c, 0x6c, 0x05, 0x3f, 0xf6, 0xc1, 0x1c, 0x3f,
  0x06, 0x72, 0x93, 0xbf, 0xb1, 0x1e, 0x6b, 0xbf, 0x4e, 0x2d, 0x70, 0x3e,
  0x8a, 0xf0, 0x27, 0x3f, 0x62, 0xe2, 0xdd, 0xbf, 0x22, 0x98, 0x0c, 0x3e,
  0x55, 0x99, 0xcf, 0x3e, 0xd3, 0x7a, 0x2b, 0xbf, 0x80, 0xe4, 0x9f, 0xbe,
  0x03, 0x80, 0x49, 0xbe, 0x89, 0xbe, 0x79, 0x3f, 0x8d, 0x1d, 0x52, 0x40,
  0xde, 0x5d, 0x09, 0xbf, 0x72, 0x01, 0x54, 0x3e, 0x8e, 0xe1, 0x73, 0xbb,
  0xa5, 0xd3, 0x4f, 0xbd, 0x25, 0x16, 0x57, 0xbe, 0x76, 0x38, 0x84, 0x3e,
  0x95, 0xd0, 0xff, 0xbe, 0x2c, 0x7b, 0x7a, 0x3e, 0xf9, 0x73, 0x4d, 0xbd,
  0x4f, 0x4d, 0x39, 0x3f, 0x33, 0x26, 0x3f, 0xbf, 0xab, 0x74, 0x47, 0xbe,
  0x88, 0xa2, 0xcc, 0xbd, 0xbc, 0xe3, 0x7b, 0x3d, 0x9d, 0xea, 0xb7, 0xbd,
  0x57, 0x8b, 0x4d, 0x40, 0xba, 0x8b, 0x04, 0x3e, 0x16, 0x01, 0xdd, 0xbd,
  0xe7, 0x6b, 0x7e, 0x3e, 0xec, 0x4d, 0x8b, 0xbf, 0x99, 0x43, 0xf7, 0x3d,
  0xa9, 0xdf, 0x8c, 0xc0, 0x72, 0x07, 0xfb, 0x3a, 0xff, 0xd7, 0x9e, 0xbe,
  0xf9, 0x0f, 0xc6, 0xc0, 0x0e, 0x21, 0xe4, 0x3e, 0x51, 0x01, 0x41, 0x40,
  0xec, 0x3b, 0x1a, 0x3d, 0x5d, 0x15, 0x52, 0xbe, 0xb2, 0xf1, 0xcf, 0x3c,
  0xbf, 0x01, 0xb6, 0xbd, 0xe4, 0xaa, 0xb7, 0x3d, 0x78, 0x3d, 0x31, 0xbe,
  0xb3, 0x38, 0x22, 0x3e, 0x6f, 0x36, 0x8d, 0x3f, 0x1d, 0xc7, 0x13, 0xbf,
  0x44, 0xa9, 0xc5, 0xbe, 0x48, 0xad, 0x3e, 0xbd, 0x33, 0xf3, 0x2b, 0x3f,
  0xc4, 0x28, 0x1a, 0xc0, 0x74, 0x7c, 0x93, 0xbe, 0x93, 0x99, 0x58, 0x3e,
  0x04, 0x32, 0x88, 0xbd, 0xd4, 0x3a, 0x80, 0xbf, 0x70, 0x6b, 0xbc, 0xbe,
  0x13, 0xa5, 0x75, 0x3e, 0x4e, 0x4b, 0x23, 0x40, 0x88, 0xee, 0x44, 0x3f,
  0xf0, 0xff, 0x7d, 0xbf, 0x70, 0xfb, 0x1f, 0xbf, 0xf0, 0x72, 0xc1, 0x3e,
  0x8b, 0x61, 0xd6, 0x3e, 0x82, 0x4b, 0xf7, 0x3f, 0x49, 0x5d, 0x32, 0x3f,
  0x66, 0xeb, 0x19, 0xbf, 0xee, 0x37, 0xc6, 0xbf, 0x8c, 0x58, 0xa7, 0x3d,
  0x46, 0xb4, 0x3b, 0x3e, 0x34, 0xe1, 0x65, 0x3e, 0x23, 0xaa, 0xb1, 0xbe,
  0xbe, 0xe6, 0xf5, 0xbe, 0x7a, 0x70, 0x5e, 0x3e, 0x1f, 0x54, 0xc7, 0x3f,
  0x8a, 0xea, 0x24, 0x40, 0x8a, 0x06, 0x25, 0xbe, 0xec, 0xbd, 0x0f, 0xbf,
  0xc2, 0x9b, 0xa9, 0xbb, 0x58, 0xb5, 0x4b, 0xbe, 0xde, 0xf8, 0x00, 0xbf,
  0xb9, 0xe0, 0x1e, 0xc0, 0x24, 0x92, 0x5c, 0xbf, 0x2f, 0x96, 0xd8, 0x3d,
  0x04, 0x2a, 0x6b, 0xbf, 0x16, 0xd9, 0xff, 0x3e, 0xfa, 0x80, 0x91, 0x3e,
  0xab, 0x93, 0x9b, 0xbe, 0xdc, 0xf0, 0xe1, 0xbf, 0x88, 0x2b, 0x7c, 0xbe,
  0x51, 0x84, 0x39, 0xbe, 0x6f, 0xe2, 0x48, 0x40, 0xfa, 0x04, 0x8a, 0xbc,
  0xd2, 0x0a, 0x9f, 0xbf, 0xed, 0x02, 0x76, 0x3e, 0xda, 0x55, 0x1a, 0xbf,
  0xad, 0xf9, 0x46, 0xbe, 0x95, 0x21, 0x90, 0xbe, 0x02, 0x1b, 0xe3, 0x3d,
  0xa6, 0xf9, 0xa9, 0x3b, 0x32, 0x8d, 0x43, 0xc0, 0xac, 0xcc, 0x29, 0xbf,
  0x26, 0x88, 0x37, 0x40, 0xcf, 0x99, 0x24, 0xbe, 0x27, 0x89, 0x08, 0xbf,
  0x0b, 0x6c, 0xf3, 0xbe, 0x3a, 0x6f, 0x6c, 0xbe, 0xbe, 0xaa, 0x84, 0x3e,
  0xab, 0xe0, 0x9f, 0xbe, 0xa5, 0x0f, 0x3f, 0x3e, 0x19, 0x61, 0x55, 0xbf,
  0x11, 0x2e, 0xdd, 0xbf, 0x5d, 0x19, 0x13, 0x3e, 0x3f, 0xed, 0xeb, 0x3d,
  0x96, 0x8b, 0xca, 0xbe, 0xe6, 0x7e, 0xcf, 0xbd, 0xf9, 0x58, 0xf9, 0xbd,
  0x77, 0xb9, 0xed, 0x3c, 0xf0, 0x82, 0x88, 0xbd, 0x25, 0xef, 0x67, 0xbf,
  0x62, 0x1a, 0xb6, 0xbe, 0xe7, 0xd9, 0x96, 0x3e, 0xd4, 0x57, 0x15, 0x40,
  0x98, 0x81, 0x11, 0x40, 0x8c, 0xe5, 0x15, 0xbf, 0xd8, 0x33, 0x89, 0x3e,
  0x42, 0xb5, 0xa3, 0x3e, 0xa2, 0x8f, 0x8c, 0x3e, 0xfe, 0x66, 0x02, 0x40,
  0x0c, 0xfc, 0x39, 0x3f, 0xd4, 0xef, 0x4d, 0x3d, 0x9d, 0xbf, 0x8c, 0x3e,
  0x28, 0x88, 0x96, 0xc0, 0x3a, 0x86, 0x07, 0xbd, 0xeb, 0x20, 0x5d, 0x3f,
  0x85, 0xa2, 0x9d, 0x3d, 0xd9, 0x14, 0x9b, 0xbd, 0x33, 0x2b, 0x2a, 0x3f,
  0x20, 0xc8, 0x41, 0xbf, 0x9a, 0xc8, 0x9b, 0xc0, 0xd7, 0x3c, 0x2e, 0x3e,
  0x56, 0x6f, 0x4a, 0x3f, 0xd0, 0x44, 0xd7, 0xbf, 0x1e, 0x3e, 0x88, 0x3e,
  0x89, 0xc3, 0xab, 0x3e, 0xfb, 0xb4, 0x29, 0xc0, 0xa3, 0x8d, 0xc6, 0xbe,
  0xf3, 0xc2, 0xaa, 0xbf, 0x89, 0xa0, 0xdf, 0xbf, 0x0b, 0x0d, 0x85, 0xbe,
  0x14, 0x16, 0x05, 0x3d, 0x88, 0x27, 0x9c, 0x3e, 0x8e, 0xe9, 0x95, 0x3f,
  0xed, 0xc2, 0x9d, 0x3d, 0xea, 0x43, 0x86, 0x3f, 0x14, 0xc2, 0xa4, 0xc0,
  0x69, 0x61, 0xc3, 0xbe, 0x34, 0x7f, 0x06, 0xbe, 0xcc, 0x36, 0x4d, 0x3e,
  0x53, 0x26, 0x88, 0xbf, 0xcd, 0xba, 0x6c, 0xbd, 0xaf, 0x5e, 0xfe, 0x3e,
  0x76, 0xe4, 0x7c, 0xbe, 0x9c, 0x00, 0x2d, 0x3f, 0x0e, 0x0c, 0x12, 0x3e,
  0xe7, 0x5b, 0x4a, 0xbf, 0x9a, 0x51, 0x83, 0xc0, 0x19, 0xbc, 0x0a, 0x3f,
  0x35, 0xdb, 0x36, 0xbf, 0x4d, 0xc1, 0x26, 0xbf, 0xe3, 0x69, 0x96, 0x3e,
  0x23, 0xf4, 0x0a, 0x3d, 0x17, 0x20, 0xde, 0xbd, 0xd2, 0xda, 0x05, 0x3e,
  0xf3, 0x53, 0x95, 0x3f, 0x53, 0x4e, 0x32, 0x3f, 0x75, 0x4f, 0x8b, 0x3e,
  0x99, 0xa4, 0x6b, 0xbe, 0xc4, 0xf6, 0xc3, 0xbd, 0xa9, 0xd0, 0x6e, 0xc0,
  0x8f, 0xd0, 0x98, 0x3e, 0x24, 0x9d, 0x0a, 0xbe, 0x0d, 0xeb, 0xa1, 0xbe,
  0x55, 0xed, 0x16, 0xbf, 0x95, 0xb3, 0x36, 0x3f, 0x27, 0xb1, 0x81, 0xbe,
  0x62, 0x45, 0x35, 0xc0, 0xff, 0xe2, 0x24, 0xbf, 0xe3, 0x4c, 0xbf, 0x3e,
  0xf1, 0x3b, 0x1d, 0xbf, 0x31, 0x5c, 0xb0, 0x3d, 0x41, 0x20, 0x42, 0xbd,
  0xc7, 0x1b, 0x8d, 0xc0, 0x4d, 0x64, 0xe4, 0xbe, 0xbd, 0x8d, 0x97, 0x3e,
  0x0c, 0x25, 0xba, 0xbf, 0x78, 0x20, 0x93, 0xbf, 0xc0, 0x3f, 0x71, 0x3e,
  0xbf, 0x0f, 0xc2, 0x3d, 0x3c, 0x33, 0x8e, 0xbf, 0x8a, 0xcf, 0x3d, 0xbe,
  0xf6, 0x48, 0xc0, 0x3c, 0x26, 0x2b, 0x6b, 0x3f, 0x36, 0x09, 0x7a, 0x40,
  0x65, 0xab, 0x9a, 0xbf, 0x6b, 0x13, 0x04, 0x3f, 0xd7, 0x9b, 0x87, 0x3e,
  0x9d, 0x30, 0x7f, 0xbd, 0xfb, 0x0a, 0x61, 0xbf, 0x60, 0xb4, 0xcd, 0x3e,
  0x39, 0x06, 0x6e, 0xbf, 0x90, 0x6c, 0xfa, 0x3e, 0xf7, 0x56, 0xb9, 0xbe,
  0x2e, 0xa3, 0xd4, 0x3e, 0x41, 0x1d, 0x20, 0xbf, 0xe9, 0xb8, 0x47, 0xbe,
  0x62, 0xa0, 0x96, 0xbf, 0x3d, 0x9f, 0xbd, 0xbe, 0x18, 0xe8, 0x29, 0x3d,
  0x2f, 0x5d, 0x96, 0x40, 0xee, 0x93, 0x41, 0x3e, 0x3f, 0x1d, 0x3c, 0xbf,
  0x50, 0xf3, 0xfa, 0x3c, 0xa2, 0x07, 0x99, 0xbf, 0x2b, 0x5c, 0x87, 0x3e,
  0x89, 0xad, 0xb8, 0xc0, 0x5e, 0x60, 0xc6, 0x3d, 0x9b, 0xcf, 0x82, 0x3d,
  0x4b, 0x2a, 0xcd, 0xc0, 0xc5, 0x3a, 0xc4, 0x3d, 0x20, 0xf4, 0x47, 0x40,
  0xde, 0x17, 0x51, 0x3e, 0x21, 0x10, 0xac, 0xbe, 0xd7, 0x5c, 0x01, 0x3f,
  0xda, 0x39, 0x3a, 0xbf, 0x84, 0xaf, 0x81, 0x3d, 0xdd, 0x40, 0xc1, 0xbe,
  0xb8, 0x3b, 0x29, 0x3f, 0x66, 0xfb, 0x9d, 0x3f, 0xd7, 0xc4, 0x18, 0xc0,
  0x10, 0x5f, 0x01, 0xbf, 0x0f, 0x16, 0x88, 0xbe, 0x9e, 0xef, 0x84, 0x3f,
  0x75, 0x1a, 0x04, 0xc0, 0x15, 0x7d, 0xdb, 0xbe, 0x33, 0xc3, 0x47, 0xbe,
  0x3a, 0xcf, 0x63, 0xbe, 0x2c, 0x30, 0x9f, 0xbf, 0x9c, 0x43, 0x9a, 0xbf,
  0xb0, 0x6e, 0xd0, 0x3c, 0x74, 0xd5, 0x55, 0x40, 0xc0, 0x4a, 0x26, 0x3f,
  0x61, 0x8b, 0xe5, 0xbf, 0x8c, 0x5d, 0x19, 0xbf, 0x6d, 0x0a, 0x68, 0x3e,
  0xc7, 0xd9, 0x0f, 0x3f, 0x41, 0x91, 0x44, 0x40, 0x00, 0xa0, 0x2c, 0x3f,
  0x9b, 0x15, 0x60, 0xbf, 0x57, 0x87, 0x95, 0xbf, 0x99, 0x2e, 0xc1, 0xbd,
  0x5c, 0x49, 0x2a, 0x3e, 0x4b, 0xd0, 0x30, 0x3f, 0xae, 0xbb, 0xde, 0xbe,
  0x84, 0x1e, 0x01, 0x3e, 0xa8, 0xda, 0x01, 0xbd, 0x81, 0x26, 0xa0, 0xbf,
  0x67, 0x70, 0xa1, 0xc0, 0xb8, 0x94, 0x77, 0xbe, 0xb3, 0x16, 0x67, 0x3f,
  0x59, 0xec, 0x37, 0x3e, 0x86, 0xea, 0x6e, 0x3e, 0x11, 0xf9, 0xa5, 0x3e,
  0xa0, 0xff, 0xf3, 0x3d, 0x5e, 0x78, 0x98, 0xbe, 0xde, 0x3b, 0xb8, 0x3e,
  0x92, 0xff, 0x3f, 0xbd, 0x98, 0xc5, 0x50, 0xbe, 0xec, 0x5d, 0xb7, 0xbd,
  0xff, 0x5c, 0x16, 0x3f, 0x09, 0xf0, 0x84, 0x3f, 0x97, 0xf1, 0xd6, 0xbe,
  0xe9, 0x85, 0x44, 0x3f, 0xa6, 0x0c, 0x88, 0xc0, 0x72, 0x04, 0x06, 0xbe,
  0xfd, 0x35, 0x0d, 0xbf, 0x90, 0x74, 0x29, 0xbf, 0xfd, 0x5d, 0x14, 0x3f,
  0x55, 0x5e, 0x19, 0xbe, 0x02, 0x5d, 0x7e, 0x3e, 0x8e, 0x71, 0xb0, 0x3e,
  0xba, 0xc5, 0x1e, 0xbe, 0xb3, 0xa0, 0xd9, 0x3f, 0x27, 0xca, 0x41, 0xbf,
  0xa7, 0x4e, 0x80, 0xc0, 0x45, 0x88, 0x41, 0xbb, 0x4a, 0xde, 0xa0, 0xbd,
  0xa9, 0xf9, 0xf3, 0x3c, 0xb2, 0xe4, 0x70, 0x3f, 0xf8, 0x99, 0xd2, 0x3e,
  0x6c, 0x0c, 0x87, 0xbd, 0x49, 0x05, 0x99, 0xbf, 0x54, 0x35, 0xc8, 0xbe,
  0xa5, 0x34, 0x9c, 0xbf, 0x2a, 0x09, 0xb9, 0x3e, 0xa9, 0xe9, 0x1f, 0xbf,
  0x8a, 0x8a, 0x1c, 0xbd, 0x34, 0x82, 0x00, 0x3f, 0x7e, 0xcf, 0x2e, 0xbd,
  0xdc, 0x5c, 0x30, 0x3c, 0x42, 0x1e, 0xff, 0xbd, 0x03, 0x4f, 0xad, 0xbe,
  0xdf, 0xaf, 0xcf, 0x3e, 0x7a, 0x8c, 0xa2, 0xbd, 0xb6, 0x0e, 0x18, 0xc0,
  0x34, 0x59, 0x7e, 0xc0, 0x1e, 0x12, 0x8e, 0xbe, 0x23, 0x01, 0x2e, 0xbd,
  0x92, 0x8d, 0xb4, 0x3e, 0x33, 0xd9, 0xb1, 0xbe, 0x4f, 0x56, 0x6c, 0xc0,
  0x70, 0x37, 0x53, 0xbf, 0xa1, 0xa5, 0xcf, 0xbe, 0xc3, 0x7d, 0x30, 0xbf,
  0x13, 0x70, 0x5a, 0x3e, 0x32, 0x87, 0xa7, 0x3e, 0xda, 0x87, 0x46, 0x3e,
  0xe5, 0x15, 0x12, 0xbe, 0xbf, 0xfd, 0x87, 0x3c, 0x06, 0x61, 0x43, 0x3d,
  0x1c, 0x8a, 0x30, 0x3f, 0x50, 0xfc, 0x6d, 0x40, 0x6c, 0x5f, 0x36, 0xbe,
  0x9b, 0x40, 0xfa, 0xbc, 0xef, 0xeb, 0x6c, 0x3c, 0x59, 0xc0, 0x2c, 0xbf,
  0x4a, 0xc9, 0x22, 0xbf, 0x51, 0x22, 0x38, 0xbf, 0xd0, 0x04, 0x04, 0xbe,
  0xdd, 0x13, 0x18, 0xbd, 0x06, 0x10, 0x3c, 0xbd, 0x19, 0xd7, 0xa3, 0x3e,
  0x67, 0x59, 0xab, 0x3c, 0x2f, 0x88, 0xb7, 0xbe, 0x9c, 0x4e, 0x03, 0xbf,
  0x3a, 0x46, 0x21, 0x3e, 0x10, 0x11, 0x5e, 0xbe, 0xcd, 0x87, 0x81, 0x40,
  0x4d, 0xcb, 0xe5, 0xbd, 0x74, 0x67, 0xb6, 0xbf, 0xec, 0x2f, 0x92, 0x3e,
  0x46, 0x77, 0xb9, 0xbf, 0x87, 0xb7, 0x02, 0xbf, 0xb3, 0x7a, 0x8b, 0xbb,
  0xbc, 0xd9, 0x8a, 0x3e, 0xbf, 0x70, 0x83, 0xbd, 0x16, 0x80, 0x21, 0xc0,
  0x7d, 0x68, 0xf5, 0xbe, 0x54, 0x39, 0x69, 0x40, 0x4e, 0x17, 0xe7, 0x3e,
  0x4e, 0xd9, 0x0a, 0x3f, 0x2c, 0x49, 0xf2, 0xbc, 0x1e, 0x7a, 0x3b, 0xbf,
  0x40, 0x65, 0x2e, 0x3e, 0x5e, 0x07, 0x99, 0xbe, 0xbe, 0x13, 0xca, 0x3d,
  0x45, 0x73, 0x14, 0xbf, 0xaf, 0x94, 0x72, 0xbf, 0x60, 0x72, 0x13, 0xbf,
  0x39, 0xa8, 0x31, 0xbe, 0x90, 0xf4, 0x4a, 0x3c, 0xc8, 0x1a, 0x33, 0xbe,
  0x50, 0x5f, 0x2d, 0xbd, 0xcb, 0xa9, 0x90, 0x3d, 0xec, 0xe0, 0x23, 0x3e,
  0xce, 0xa1, 0x5a, 0xbe, 0x26, 0xb5, 0x21, 0xbf, 0x6b, 0x80, 0xec, 0x3d,
  0xc1, 0xa7, 0x58, 0x40, 0xf0, 0xb5, 0xcf, 0x3e, 0x08, 0xf0, 0xd7, 0xbe,
  0xbf, 0x7a, 0xe2, 0xbd, 0x44, 0x13, 0x02, 0x3f, 0x8c, 0xde, 0x9f, 0x3e,
  0xff, 0x24, 0x47, 0x40, 0x6e, 0x1f, 0xfd, 0x3e, 0x81, 0x3a, 0x15, 0x3f,
  0x6c, 0xa9, 0xbb, 0xbe, 0x3a, 0x23, 0xa3, 0xbe, 0x29, 0x1c, 0xcb, 0x3e,
  0xe2, 0x10, 0x45, 0xbf, 0x76, 0x4a, 0xda, 0xbd, 0xe8, 0x77, 0xac, 0xbf,
  0x6d, 0x85, 0x85, 0xbf, 0x41, 0x92, 0x8a, 0xbf, 0xd5, 0x48, 0xa1, 0xc0,
  0x14, 0xd3, 0xe2, 0x3e, 0x43, 0xdd, 0x48, 0xbf, 0x27, 0x1e, 0x34, 0xbe,
  0x7f, 0xdb, 0x43, 0x3e, 0x84, 0x46, 0xf7, 0x3e, 0x12, 0xff, 0xbf, 0x3e,
  0x34, 0x26, 0x66, 0xbf, 0xa6, 0x3e, 0x9f, 0xbc, 0x50, 0xc0, 0x80, 0x3d,
  0xb5, 0x14, 0xa2, 0x3e, 0x79, 0x0c, 0xe3, 0x3d, 0xa6, 0xaf, 0x4b, 0x3f,
  0xd1, 0xcd, 0x9c, 0x3f, 0xb8, 0x4d, 0xc1, 0xbd, 0x1f, 0x13, 0xa3, 0xbf,
  0x89, 0x8d, 0xaa, 0xc0, 0x28, 0x34, 0xe5, 0x3e, 0x4b, 0x6d, 0x66, 0x3e,
  0x18, 0xb8, 0x84, 0x3d, 0x43, 0x34, 0x71, 0x3f, 0x47, 0x3c, 0x25, 0x3e,
  0x3e, 0x72, 0xca, 0xbe, 0x2a, 0xd1, 0x5f, 0x3e, 0x04, 0xa6, 0x99, 0xc0,
  0x87, 0xe6, 0x15, 0x40, 0x8e, 0x1d, 0xb7, 0x3d, 0xb6, 0x9b, 0x84, 0xc0,
  0xd7, 0x54, 0xcb, 0xbf, 0xd6, 0x34, 0xe7, 0xbd, 0xd0, 0x72, 0x21, 0xbe,
  0x95, 0x5e, 0x01, 0x3f, 0x10, 0x87, 0xaa, 0x3e, 0xbf, 0xa3, 0x65, 0xbc,
  0xf9, 0xe9, 0x78, 0xbe, 0x9b, 0x81, 0xa6, 0x3d, 0xc1, 0xe8, 0x29, 0x3e,
  0x34, 0xa6, 0x24, 0x3f, 0x68, 0x39, 0x48, 0x3e, 0x0b, 0xde, 0xc8, 0xbf,
  0x2c, 0x6e, 0x0e, 0xbe, 0xaf, 0x00, 0xe8, 0xbe, 0xce, 0x28, 0xfd, 0x3e,
  0x66, 0xb1, 0xb3, 0x3e, 0x7b, 0x99, 0xf9, 0x3f, 0x63, 0x1b, 0x4e, 0x3f,
  0x02, 0x5b, 0x27, 0x3f, 0xbb, 0xea, 0x5d, 0xc0, 0xdf, 0x73, 0x82, 0xc0,
  0x2e, 0xec, 0x01, 0x3f, 0xae, 0x43, 0x6e, 0xbe, 0x94, 0xc4, 0x09, 0x3f,
  0xb8, 0x54, 0x79, 0xbd, 0x24, 0x7f, 0x87, 0xc0, 0xfd, 0x02, 0xdd, 0xbe,
  0x53, 0xdb, 0x45, 0xbe, 0x9c, 0x5e, 0x01, 0xc0, 0x9b, 0x12, 0x8e, 0xbf,
  0xaa, 0x61, 0x97, 0x3e, 0xd9, 0xa6, 0x89, 0x3e, 0x98, 0xb2, 0xaf, 0xbf,
  0x39, 0x9a, 0xb8, 0x3c, 0x1e, 0xa1, 0x17, 0x3f, 0x5d, 0xa4, 0xd6, 0x3f,
  0x0e, 0x91, 0x7d, 0x40, 0x3b, 0xde, 0x18, 0xbf, 0xb8, 0x5f, 0x29, 0x3d,
  0x88, 0x18, 0xac, 0xbd, 0x89, 0x7c, 0xcb, 0x3e, 0xcd, 0x7e, 0x4c, 0xbd,
  0x6d, 0x79, 0x78, 0xbf, 0x5e, 0x58, 0xe0, 0xbf, 0x0e, 0x26, 0x32, 0x3f,
  0x3f, 0x15, 0x63, 0xbf, 0x10, 0xb7, 0x04, 0x3f, 0xdb, 0xc0, 0xd2, 0xbe,
  0x13, 0x49, 0x02, 0xbf, 0x60, 0xa3, 0x8b, 0xbf, 0xf9, 0x81, 0xbe, 0x3e,
  0xfd, 0xd9, 0xcd, 0xbd, 0xab, 0x1a, 0xa2, 0x40, 0x6e, 0xa0, 0x4a, 0x3e,
  0x24, 0xed, 0xa8, 0x3f, 0x86, 0xa0, 0xbf, 0x3e, 0x11, 0xd1, 0xaa, 0xbf,
  0x6c, 0xd2, 0x4f, 0xbe, 0x71, 0x28, 0x10, 0xc0, 0x2b, 0x70, 0x88, 0x3e,
  0x48, 0x59, 0x32, 0xbf, 0x76, 0xf3, 0x4d, 0xc0, 0xe7, 0x7b, 0x2a, 0x3e,
  0x24, 0xc1, 0x4d, 0x40, 0xc8, 0xb2, 0x8c, 0xbc, 0x76, 0x2b, 0x78, 0xbe,
  0x1b, 0x81, 0xd5, 0xbe, 0xfe, 0xf2, 0x4d, 0xbe, 0xc1, 0x97, 0x49, 0x3e,
  0x0e, 0xa4, 0x90, 0xbf, 0xb7, 0xc3, 0x59, 0x3e, 0x4f, 0x27, 0x29, 0xbf,
  0x7d, 0x39, 0x01, 0xc0, 0xe0, 0xd6, 0x12, 0xbe, 0x45, 0x33, 0xa0, 0xbe,
  0xbd, 0x15, 0x5a, 0x3f, 0x1c, 0x28, 0x4e, 0xbf, 0xcd, 0x1c, 0x4d, 0xbf,
  0xa7, 0x1f, 0x59, 0x3e, 0x19, 0xf8, 0xa4, 0x3e, 0xe5, 0x05, 0x02, 0xc0,
  0x37, 0x6c, 0x8c, 0x3b, 0x59, 0xe3, 0xcd, 0x3e, 0xe2, 0x78, 0x6c, 0x40,
  0x58, 0x5d, 0x36, 0x40, 0xed, 0x69, 0x56, 0xbf, 0xcf, 0x4f, 0xc4, 0xbe,
  0xfc, 0xaa, 0xdd, 0x3e, 0x76, 0x82, 0x48, 0x3f, 0x9b, 0x80, 0x4f, 0x40,
  0xf5, 0xc3, 0xb8, 0x3f, 0xf6, 0xdc, 0x8f, 0x3e, 0xd3, 0x7e, 0x58, 0xbe,
  0xf0, 0x6a, 0x5f, 0xbd, 0x69, 0x40, 0xc6, 0xbe, 0x80, 0x62, 0x4a, 0x3f,
  0x5c, 0x89, 0x8f, 0xbc, 0xce, 0x3b, 0x80, 0x3e, 0xdd, 0xf0, 0x1a, 0x3f,
  0xbb, 0x16, 0x5a, 0xbf, 0xb1, 0x0c, 0xae, 0xbf, 0x2e, 0xe7, 0x93, 0xbe,
  0x7b, 0xc4, 0xb1, 0x3e, 0x73, 0xe2, 0x09, 0xbe, 0xde, 0x68, 0x89, 0x3f,
  0xcc, 0xe9, 0x0b, 0x3f, 0x5c, 0x23, 0x30, 0xbd, 0xa3, 0x3b, 0x04, 0xbf,
  0x2b, 0xaf, 0xaf, 0xbd, 0x25, 0x17, 0x47, 0xbc, 0x56, 0xa6, 0xbe, 0x3b,
  0xcc, 0x83, 0x26, 0xbf, 0x2c, 0xad, 0x98, 0x3e, 0x4a, 0xe4, 0x26, 0x3f,
  0xfb, 0x3a, 0xd1, 0xbe, 0x2f, 0x1d, 0xc8, 0x3e, 0xd1, 0x68, 0x81, 0xbf,
  0x2c, 0xf3, 0x4e, 0x3e, 0xdc, 0xb7, 0xee, 0x3e, 0xfa, 0x18, 0x0c, 0x3f,
  0x2f, 0xb9, 0x8e, 0xbe, 0x4b, 0x08, 0x1c, 0x3f, 0x26, 0x73, 0x35, 0x3e,
  0xa7, 0x1f, 0x9a, 0xbd, 0x20, 0xd9, 0xd7, 0x3d, 0x53, 0x1b, 0x80, 0x3e,
  0xe6, 0x46, 0x03, 0x3e, 0x39, 0xe7, 0x11, 0xc0, 0x17, 0x87, 0x96, 0x3d,
  0x5e, 0x90, 0x85, 0xbc, 0x12, 0x0e, 0xe7, 0xbd, 0x58, 0xcd, 0x5b, 0x3e,
  0x6e, 0xed, 0x4b, 0xbf, 0x13, 0x0f, 0x7b, 0xbe, 0x60, 0xed, 0x9c, 0xbd,
  0xbf, 0xeb, 0x7d, 0xbf, 0xfb, 0x8a, 0x23, 0x3f, 0x5e, 0xfd, 0xec, 0x3e,
  0x48, 0xa7, 0x6e, 0x3e, 0xfa, 0xd7, 0x82, 0x3e, 0x6e, 0x0f, 0xc5, 0x3d,
  0xaa, 0x65, 0xf2, 0xbb, 0x7c, 0x56, 0x1a, 0xbe, 0x2c, 0xfa, 0x9d, 0xbe,
  0x4d, 0xed, 0x02, 0xbf, 0x0f, 0xc4, 0x39, 0x3f, 0x06, 0x32, 0x3c, 0x3e,
  0xd3, 0xe6, 0xa8, 0xbf, 0x8b, 0x75, 0xa7, 0xbe, 0x51, 0xe9, 0xc0, 0x3e,
  0x86, 0x36, 0xce, 0xbe, 0x73, 0xdc, 0x58, 0xbf, 0xbe, 0xc9, 0x97, 0x3e,
  0xed, 0xd4, 0x0e, 0xbf, 0x81, 0x10, 0x62, 0xbf, 0xb2, 0x52, 0x9a, 0x3e,
  0x89, 0xc0, 0xd8, 0xbd, 0x4f, 0x10, 0x9e, 0x3c, 0xdd, 0xf8, 0x06, 0xbf,
  0x3d, 0x96, 0x88, 0x3f, 0x0f, 0x01, 0xb1, 0xbc, 0x6d, 0x13, 0x0d, 0x3d,
  0xb7, 0x96, 0xb0, 0x3e, 0x61, 0x24, 0x0c, 0xbf, 0x4e, 0x29, 0x9d, 0xbf,
  0x3f, 0xdf, 0x9f, 0xbe, 0x2c, 0xda, 0x2c, 0x3f, 0x9b, 0xe6, 0x35, 0xbe,
  0x5d, 0xe1, 0x95, 0x3f, 0x80, 0xd5, 0x02, 0x3f, 0x28, 0xfc, 0x88, 0xbe,
  0x92, 0xac, 0x68, 0x3c, 0x8a, 0x2e, 0x12, 0xbf, 0x6f, 0x9e, 0x04, 0xbe,
  0xb2, 0xb6, 0x84, 0x3d, 0xc5, 0x35, 0xea, 0xbe, 0xcb, 0x89, 0x58, 0x3f,
  0x06, 0x1e, 0x32, 0x3f, 0xc4, 0x9d, 0xd9, 0xbe, 0xa8, 0x03, 0x01, 0x3f,
  0x8b, 0xc4, 0x26, 0xbf, 0x2b, 0xb4, 0xba, 0xbd, 0x92, 0x4a, 0x33, 0x3e,
  0x42, 0xbd, 0xb6, 0x3e, 0x51, 0x01, 0xbb, 0xbd, 0x32, 0x04, 0xfa, 0x3d,
  0x38, 0x23, 0x1b, 0x3e, 0x7a, 0x4d, 0x97, 0xbd, 0xfc, 0x58, 0x92, 0xbd,
  0xf4, 0x1d, 0x00, 0x3e, 0x96, 0x89, 0xda, 0xbe, 0xd4, 0x6a, 0x07, 0xc0,
  0x07, 0x64, 0x1e, 0x3e, 0x3d, 0x80, 0xdf, 0x3d, 0x5d, 0xd2, 0xfb, 0xbc,
  0xce, 0x42, 0x64, 0x3f, 0xb1, 0x61, 0x4f, 0xbf, 0x8f, 0x28, 0x17, 0xbd,
  0xd7, 0xad, 0xab, 0xbb, 0x37, 0xe4, 0x2e, 0xbf, 0xd3, 0x8f, 0x51, 0x3d,
  0xbe, 0x15, 0xb5, 0x3d, 0xc0, 0xbe, 0x9a, 0xbe, 0x9c, 0xa2, 0x37, 0x3e,
  0x85, 0xac, 0xf6, 0xbe, 0x95, 0x65, 0x36, 0x3a, 0x06, 0x2c, 0xa2, 0xbe,
  0x7a, 0x4e, 0x0b, 0xbe, 0xdd, 0x1c, 0x4d, 0xbd, 0xd4, 0x13, 0x18, 0x3f,
  0x08, 0x5c, 0xc7, 0x3d, 0x5e, 0x7d, 0xae, 0x3d, 0x58, 0xdc, 0x74, 0xbf,
  0xa5, 0x84, 0x6d, 0x3e, 0x68, 0xf7, 0x0c, 0xbf, 0xcd, 0xc9, 0xcb, 0xbe,
  0x92, 0x7c, 0xd1, 0x3e, 0xbe, 0xd6, 0x43, 0xbf, 0x19, 0x2a, 0xd4, 0xbe,
  0x91, 0x03, 0x3a, 0xbf, 0x0c, 0x3a, 0x92, 0xbe, 0x47, 0x8b, 0x23, 0xbe,
  0xa4, 0x1d, 0xbb, 0xbb, 0x49, 0x03, 0x37, 0x3e, 0x9e, 0xdb, 0x28, 0xbe,
  0x40, 0x86, 0xde, 0x3d, 0xd3, 0xfb, 0xd7, 0x3e, 0xac, 0xb0, 0x59, 0x3f,
  0x23, 0x1f, 0x1a, 0x40, 0xb2, 0xc2, 0xcc, 0xbd, 0x5c, 0x3b, 0x8f, 0xbe,
  0xe8, 0x28, 0xb8, 0x3c, 0x95, 0x19, 0xa3, 0xbe, 0xb6, 0xcb, 0x0d, 0xbf,
  0x03, 0xc6, 0x4f, 0xbe, 0x0f, 0x33, 0x54, 0xbe, 0x3c, 0x01, 0x86, 0xbe,
  0x94, 0xa6, 0xb3, 0xbc, 0xe5, 0x45, 0xdb, 0x3e, 0x60, 0xfd, 0x85, 0xbd,
  0xb9, 0x2d, 0x27, 0xbf, 0x52, 0x33, 0xac, 0xbf, 0x38, 0xf2, 0xff, 0x3d,
  0xec, 0xfa, 0x26, 0xbe, 0x0b, 0xe6, 0x29, 0x40, 0xf5, 0x9b, 0x31, 0xbd,
  0x61, 0xa1, 0x69, 0xbf, 0x88, 0xcb, 0xe8, 0x3e, 0xda, 0x6d, 0x96, 0xbf,
  0x28, 0x92, 0x67, 0x3e, 0xee, 0x5e, 0x8b, 0xbd, 0x86, 0x03, 0x37, 0x3c,
  0xa3, 0x5c, 0x5b, 0x3e, 0x89, 0xc9, 0xa0, 0xbf, 0xbd, 0x45, 0x89, 0x3d,
  0xee, 0xe2, 0x2a, 0x40, 0x2a, 0x4f, 0xc7, 0x3b, 0x82, 0x55, 0xe1, 0x3d,
  0xc2, 0x80, 0xc8, 0x3d, 0xc6, 0xbb, 0x9e, 0xbe, 0x55, 0x62, 0xe6, 0x3e,
  0x3a, 0x94, 0x80, 0xbe, 0x37, 0x04, 0x80, 0xbd, 0x67, 0xb9, 0xd2, 0xbe,
  0x19, 0xda, 0xb7, 0xbf, 0x14, 0x05, 0x05, 0xbf, 0xc8, 0x78, 0x75, 0xbe,
  0xba, 0x23, 0xef, 0x3d, 0x93, 0x21, 0xb9, 0xbd, 0x21, 0x8e, 0xa0, 0x3d,
  0xef, 0x59, 0x34, 0x3e, 0xf0, 0xc4, 0x84, 0x3d, 0x24, 0x92, 0xe6, 0x3c,
  0x55, 0xfd, 0xfe, 0xbe, 0x8e, 0x79, 0xa4, 0x3e, 0xc3, 0xa8, 0xff, 0x3f,
  0xa2, 0xee, 0x31, 0x3e, 0x7a, 0x22, 0xe8, 0x3e, 0x4c, 0xa6, 0xd4, 0x3e,
  0x5b, 0xac, 0xb1, 0x3e, 0xa8, 0xdc, 0x10, 0x3e, 0x3c, 0xab, 0xce, 0x3f,
  0xea, 0xc7, 0x5c, 0x3f, 0x54, 0xbe, 0xb3, 0x3e, 0x00, 0x73, 0x2d, 0xbd,
  0xe9, 0x7e, 0x7b, 0xbc, 0x82, 0x43, 0xb6, 0xbf, 0xb0, 0x2d, 0x96, 0x3e,
  0xc3, 0x9b, 0x50, 0x3e, 0xcc, 0x15, 0xb2, 0xbd, 0x6d, 0xa9, 0xd9, 0x3e,
  0xf3, 0xcb, 0x7d, 0xbd, 0x14, 0xf7, 0x3e, 0xbe, 0xf8, 0xdd, 0x1d, 0x3f,
  0x95, 0x08, 0x54, 0x3e, 0x1e, 0xb2, 0x80, 0x3e, 0x1a, 0x9d, 0x4b, 0x3d,
  0xc2, 0x6f, 0xce, 0x3e, 0xf8, 0xcf, 0x0e, 0x3f, 0xea, 0xc1, 0x55, 0xbf,
  0x5c, 0x53, 0xa6, 0x3e, 0x22, 0xb1, 0x93, 0x3e, 0x38, 0x39, 0x61, 0xbf,
  0xe9, 0x54, 0x0f, 0xbe, 0x50, 0xe5, 0xa9, 0x3c, 0x7c, 0x21, 0xc7, 0x3e,
  0xc8, 0xf8, 0x54, 0xbe, 0xa3, 0xe6, 0x1f, 0x3f, 0x1a, 0x28, 0x54, 0x3f,
  0xd7, 0xa8, 0x81, 0x3e, 0xc0, 0xf1, 0x48, 0xbe, 0x2e, 0x49, 0xed, 0xbe,
  0xd9, 0xb4, 0xcd, 0x3f, 0xff, 0x09, 0x37, 0xbe, 0xc5, 0xfc, 0x60, 0xbd,
  0x14, 0xb3, 0x08, 0x3e, 0x59, 0xea, 0x32, 0x3d, 0x30, 0x1a, 0x1f, 0x40,
  0xb7, 0x45, 0x06, 0x3e, 0x88, 0x7a, 0xac, 0x3e, 0x15, 0x8a, 0xea, 0xbd,
  0xa1, 0xc6, 0x9d, 0x3e, 0x31, 0x38, 0x28, 0xbe, 0xa6, 0x70, 0x2e, 0xbe,
  0xaf, 0xf1, 0x94, 0x3e, 0xa5, 0x92, 0x7f, 0x3e, 0xf2, 0x6a, 0x5b, 0xbe,
  0x3f, 0x70, 0xb2, 0xbd, 0xa7, 0x77, 0xfd, 0xbe, 0x83, 0x1e, 0xad, 0x3f,
  0x7d, 0xb0, 0xc6, 0xbe, 0xcc, 0x8c, 0xc4, 0xbe, 0xb0, 0x94, 0x33, 0xbe,
  0x7e, 0x55, 0x1a, 0xbf, 0x95, 0x8c, 0x37, 0x3e, 0xdb, 0x25, 0x9a, 0xbf,
  0x86, 0x82, 0xce, 0xbe, 0x4c, 0x5e, 0x34, 0x3f, 0xdb, 0x62, 0xd9, 0x3e,
  0x9a, 0x7f, 0x04, 0x3d, 0x01, 0xe2, 0x67, 0x3e, 0x9c, 0xb6, 0x40, 0xbe,
  0x95, 0x47, 0x50, 0x3e, 0x73, 0x97, 0x03, 0x3d, 0x7a, 0xae, 0x7d, 0xbf,
  0x3a, 0x39, 0x96, 0x3f, 0x2c, 0x18, 0xaa, 0x3b, 0xa5, 0x0d, 0x0e, 0x3f,
  0x34, 0x35, 0x5a, 0xbe, 0xc2, 0xf4, 0xcf, 0x3e, 0x72, 0xa4, 0xba, 0xc0,
  0xb6, 0x24, 0xb4, 0x3e, 0xaa, 0xb0, 0x4f, 0x3e, 0x82, 0xbc, 0x5d, 0xbe,
  0xc8, 0x5d, 0xfc, 0x3e, 0x76, 0xde, 0xd8, 0x3d, 0xde, 0xc2, 0x49, 0xbf,
  0xf2, 0xb9, 0x2b, 0xbe, 0xf8, 0xd1, 0x94, 0x3e, 0xa1, 0x4d, 0x01, 0x3d,
  0xc3, 0xa9, 0xf4, 0x3e, 0xe3, 0x85, 0x22, 0x3e, 0x23, 0x5a, 0x32, 0x3f,
  0x2d, 0x41, 0x64, 0xbe, 0x66, 0x71, 0x7f, 0x3b, 0xcd, 0x68, 0xf1, 0xbc,
  0xb0, 0x05, 0xf8, 0xbe, 0x5f, 0xdc, 0xa1, 0x3e, 0x6d, 0x0c, 0xdc, 0x3c,
  0x14, 0x89, 0x13, 0xbf, 0x03, 0x64, 0x2e, 0xbe, 0xbe, 0x73, 0xa2, 0x3e,
  0x1a, 0x5c, 0x33, 0xbf, 0x86, 0x76, 0x78, 0xbe, 0xaa, 0x59, 0x95, 0xbe,
  0xc3, 0xf4, 0xdb, 0xbf, 0xa4, 0x62, 0x35, 0xc0, 0xf2, 0x66, 0xd7, 0xbd,
  0x1c, 0xb9, 0x70, 0x3d, 0xf8, 0x42, 0xcb, 0x3a, 0x05, 0x8e, 0xc9, 0x3d,
  0x92, 0xdd, 0x01, 0xc0, 0xd5, 0x74, 0x18, 0x3e, 0xc6, 0xd3, 0x63, 0xbe,
  0x92, 0x94, 0xb3, 0x3e, 0x09, 0xe2, 0x0b, 0xbf, 0x77, 0xcd, 0x88, 0xbd,
  0xd9, 0x66, 0xe0, 0xbe, 0x81, 0xf4, 0xde, 0x3d, 0x33, 0x6b, 0xa3, 0xbe,
  0x4e, 0x75, 0x53, 0x3e, 0x40, 0xe4, 0xdd, 0x3c, 0x86, 0x07, 0x68, 0xbe,
  0x6d, 0x38, 0xed, 0xbe, 0x47, 0x07, 0x31, 0x3e, 0xd7, 0x11, 0x93, 0xbd,
  0x98, 0xc7, 0x35, 0xbe, 0x78, 0x67, 0x98, 0xbe, 0x87, 0x55, 0xe7, 0xbe,
  0xcc, 0x4f, 0xa8, 0xbf, 0x22, 0x4f, 0x5e, 0xbf, 0x54, 0xf7, 0x00, 0x40,
  0x94, 0xed, 0x82, 0xbe, 0xad, 0x2b, 0x26, 0xbf, 0xc8, 0x31, 0x55, 0x3f,
  0xa9, 0x5c, 0x4f, 0xbf, 0x5b, 0x83, 0x27, 0x3e, 0x94, 0x7d, 0x73, 0x3e,
  0xf0, 0x7e, 0xaf, 0xbf, 0xba, 0xa7, 0x23, 0xbe, 0x8d, 0x5d, 0x78, 0x3e,
  0xd1, 0xf0, 0x7d, 0xbf, 0x17, 0x70, 0xc4, 0xbf, 0xb0, 0xc4, 0xf6, 0xbe,
  0xb5, 0xdb, 0x39, 0xc0, 0xd5, 0x74, 0xa1, 0x3f, 0xf5, 0xa7, 0x9c, 0x3e,
  0x34, 0x4c, 0x21, 0x3f, 0x6c, 0xc2, 0x01, 0x3f, 0x2a, 0xcb, 0x38, 0xc0,
  0x39, 0x74, 0xc1, 0xbd, 0x4f, 0xf1, 0xa8, 0x3b, 0x08, 0xbc, 0xa3, 0x3f,
  0xf8, 0x37, 0x80, 0x3b, 0xea, 0x85, 0xd7, 0x3e, 0xa6, 0x25, 0xf3, 0x3e,
  0x18, 0x68, 0x02, 0x3f, 0x6c, 0xa3, 0x8a, 0xbf, 0x7f, 0x7f, 0x17, 0xbe,
  0x56, 0x1b, 0x58, 0x3e, 0x36, 0x39, 0x40, 0xc0, 0x47, 0xb3, 0x44, 0xbe,
  0x04, 0xaa, 0x06, 0x3e, 0x68, 0x5f, 0x46, 0xbf, 0xf3, 0xe7, 0x2e, 0x3e,
  0x17, 0x06, 0xb3, 0x3f, 0x61, 0x28, 0x42, 0x3e, 0x7f, 0xba, 0x07, 0xbc,
  0xb0, 0x92, 0xd4, 0x3f, 0x13, 0x84, 0x47, 0xbe, 0x39, 0xe1, 0x8f, 0x40,
  0x6e, 0x51, 0x21, 0xbe, 0x12, 0x15, 0xfa, 0xbd, 0x44, 0x47, 0xb8, 0x3d,
  0xce, 0x82, 0xa4, 0xbe, 0x74, 0x1a, 0x3b, 0x40, 0xaa, 0xbd, 0x59, 0xbf,
  0x24, 0xe9, 0xba, 0x3e, 0x91, 0x04, 0xf7, 0x3e, 0x81, 0x7c, 0x9f, 0x3e,
  0x18, 0x5d, 0x97, 0xbd, 0x04, 0x06, 0x4b, 0x3e, 0x1c, 0x00, 0x34, 0x3e,
  0xe6, 0x5f, 0x1a, 0x3c, 0x8f, 0xe4, 0xa9, 0xbf, 0x80, 0xee, 0x5d, 0xbf,
  0xda, 0xda, 0x49, 0x3e, 0x72, 0x8f, 0x01, 0x40, 0x62, 0x06, 0x1b, 0xbf,
  0x08, 0x55, 0x50, 0xbe, 0x98, 0x1a, 0xac, 0x3e, 0x1c, 0xca, 0x20, 0x3d,
  0x09, 0xd3, 0x13, 0x3c, 0xa9, 0x1b, 0xb5, 0xbf, 0x1c, 0xbe, 0x5f, 0xbf,
  0x30, 0xcf, 0x08, 0xc0, 0x7f, 0x92, 0xae, 0x3e, 0x99, 0x3a, 0x3f, 0x3e,
  0xe9, 0xad, 0x67, 0xc0, 0x19, 0x26, 0x9e, 0x3e, 0x16, 0x12, 0x89, 0x3e,
  0x4f, 0xd6, 0x55, 0x3e, 0x23, 0x71, 0x13, 0xc0, 0x8e, 0x98, 0x0e, 0x3e,
  0xb3, 0xc2, 0xf4, 0xbf, 0x4e, 0x9f, 0x87, 0xbe, 0x03, 0x93, 0xc2, 0x3e,
  0x78, 0xce, 0x3b, 0xbe, 0x62, 0x6a, 0xdc, 0xbf, 0x0b, 0x85, 0xa9, 0x3f,
  0x43, 0x11, 0x75, 0x3d, 0x7a, 0xed, 0x7d, 0xbe, 0xec, 0x97, 0x1a, 0x3f,
  0xaf, 0x60, 0x0b, 0xbf, 0x8e, 0x8a, 0xb2, 0x3f, 0x9f, 0xb7, 0xa0, 0xbe,
  0xc6, 0xcc, 0x98, 0x3f, 0xf1, 0x39, 0xfe, 0xbe, 0x92, 0xc3, 0xda, 0x3e,
  0x04, 0x16, 0x5d, 0xbe, 0x98, 0xb2, 0x86, 0xbf, 0x90, 0x98, 0x3a, 0xbf,
  0x94, 0xdc, 0xa5, 0xbf, 0xce, 0xf4, 0x74, 0xbe, 0xb6, 0x22, 0x96, 0xbe,
  0x7a, 0x86, 0x2d, 0xbe, 0x78, 0x99, 0x18, 0xbf, 0x78, 0x6b, 0x09, 0x3f,
  0xa5, 0xa5, 0xb5, 0x3d, 0xc0, 0xa0, 0xae, 0x3f, 0x20, 0x8c, 0xbd, 0x3f,
  0xea, 0xbf, 0x9a, 0x3c, 0x54, 0xea, 0xc7, 0xbe, 0x06, 0xa4, 0x15, 0x3f,
  0x76, 0x31, 0xa1, 0x3b, 0x04, 0x76, 0xbf, 0xbd, 0x7f, 0x52, 0x07, 0x3e,
  0xe2, 0x45, 0xaa, 0xbe, 0xf4, 0xf4, 0x07, 0x3f, 0xb4, 0x40, 0x26, 0x40,
  0xce, 0xc8, 0x84, 0xbe, 0xa0, 0x96, 0xb2, 0x3f, 0x6d, 0x86, 0x48, 0x3f,
  0x4c, 0x42, 0x52, 0xbf, 0x28, 0x8e, 0xe0, 0xbe, 0x0c, 0x7e, 0x24, 0x3e,
  0x43, 0x2c, 0xa2, 0xbe, 0xa1, 0x27, 0xa4, 0xbe, 0x16, 0x2b, 0x1e, 0xbd,
  0x43, 0xd2, 0x96, 0x3e, 0x85, 0x13, 0x34, 0x3e, 0x68, 0xa4, 0x10, 0x3f,
  0xf0, 0x4d, 0x8a, 0x3d, 0x40, 0x3d, 0xbe, 0xbe, 0x0e, 0x31, 0xdb, 0xbf,
  0xfb, 0xd3, 0xbb, 0x3c, 0x44, 0x55, 0x7c, 0xbe, 0xa5, 0xec, 0xa4, 0xbf,
  0x5b, 0x17, 0x29, 0xbf, 0x00, 0xb0, 0xbc, 0xbe, 0x5a, 0xeb, 0xdb, 0x3d,
  0x12, 0x9c, 0xcb, 0x3f, 0xb8, 0x2b, 0x63, 0x3c, 0xe5, 0x74, 0xd2, 0x3d,
  0xbe, 0x64, 0x98, 0xbd, 0x01, 0x64, 0xd3, 0xbd, 0xf6, 0x63, 0xef, 0xbd,
  0x08, 0x33, 0xdd, 0x3f, 0x35, 0x7d, 0x32, 0xbf, 0x7c, 0xd0, 0x6c, 0xbe,
  0x0d, 0x1b, 0xb3, 0x3c, 0x9b, 0x2b, 0x21, 0xbf, 0xdb, 0xa2, 0x6a, 0x3f,
  0x64, 0x4e, 0x82, 0x3c, 0x7c, 0x08, 0x09, 0xbe, 0x71, 0xb6, 0xa6, 0x3e,
  0x01, 0xab, 0x72, 0x3e, 0xae, 0x91, 0x91, 0x3e, 0x8e, 0xe2, 0x1b, 0x40,
  0x71, 0xf7, 0x23, 0xbc, 0x26, 0x9a, 0xaf, 0x3d, 0xfe, 0x14, 0xe5, 0xbe,
  0xef, 0x80, 0x84, 0x3f, 0x4f, 0x41, 0xf4, 0x3c, 0x6b, 0x2a, 0xfc, 0xbe,
  0x7d, 0x1c, 0xa2, 0xbe, 0xf2, 0xe2, 0x62, 0xbd, 0x2b, 0xb6, 0x2a, 0xbf,
  0x0f, 0xc0, 0x9e, 0x3d, 0x3f, 0x9c, 0xca, 0xbe, 0x1f, 0xed, 0xbf, 0x3e,
  0x01, 0x0f, 0xf7, 0xbc, 0xcd, 0xb7, 0x44, 0x3d, 0x18, 0xf0, 0xbd, 0x3e,
  0x1c, 0x1a, 0x42, 0x40, 0x50, 0x03, 0xbb, 0x3d, 0x5f, 0x13, 0x60, 0x3f,
  0x2d, 0xd2, 0x41, 0x3e, 0xeb, 0x20, 0xe1, 0xc0, 0xb9, 0xf4, 0xea, 0x3e,
  0x34, 0xeb, 0x85, 0xbd, 0xb5, 0xfb, 0x28, 0x3c, 0xa1, 0x8b, 0xdd, 0xbd,
  0x4c, 0x6b, 0x0d, 0xc0, 0x9b, 0x54, 0x40, 0xbd, 0x43, 0x01, 0x35, 0x40,
  0x42, 0x23, 0x7e, 0x3e, 0x8c, 0x5d, 0xc1, 0x3d, 0xee, 0x4a, 0xac, 0xbe,
  0xdc, 0xd5, 0x09, 0x3f, 0xb3, 0x56, 0xa7, 0x3e, 0x29, 0x02, 0x9e, 0xbd,
  0x80, 0x0c, 0xc6, 0xbd, 0x9b, 0x68, 0xa0, 0xbf, 0x8a, 0x59, 0xc5, 0xbf,
  0xa6, 0xdf, 0xd5, 0xbf, 0x20, 0x95, 0x72, 0x3e, 0x3e, 0x2a, 0x82, 0x3e,
  0x06, 0x60, 0x94, 0xbe, 0x15, 0x6e, 0x0d, 0xbe, 0x72, 0x3d, 0x2c, 0x3d,
  0xc4, 0x39, 0x13, 0x3f, 0xda, 0x2d, 0x46, 0xbe, 0xa2, 0xb2, 0x06, 0xbf,
  0xa7, 0x34, 0x07, 0x3f, 0x0d, 0x9d, 0x18, 0x40, 0xe2, 0xa4, 0xa0, 0xbe,
  0xcb, 0x63, 0x04, 0xbf, 0x2e, 0xaf, 0x44, 0xc0, 0x6e, 0x64, 0xe4, 0xbd,
  0x80, 0x7a, 0x75, 0xbe, 0xa8, 0xd2, 0x1c, 0x40, 0xd9, 0x19, 0x37, 0x3f,
  0x86, 0xa5, 0x02, 0xbf, 0xb3, 0x10, 0x12, 0xbf, 0x18, 0x32, 0x92, 0xbd,
  0x62, 0x23, 0x9a, 0x3e, 0x0a, 0x0b, 0x75, 0x3e, 0x04, 0x0b, 0x7f, 0xbf,
  0x6e, 0x68, 0x70, 0xbd, 0x49, 0x0a, 0xe6, 0x3e, 0x9c, 0x5a, 0xbb, 0x3f,
  0x97, 0xc3, 0x81, 0x40, 0xce, 0x3a, 0xa1, 0xbe, 0xa3, 0xb1, 0xaa, 0x3e,
  0x4e, 0x98, 0xe7, 0x3d, 0x95, 0x7c, 0xe8, 0xbf, 0x70, 0x91, 0x92, 0xbe,
  0x0c, 0x53, 0xf6, 0xbe, 0xfe, 0x46, 0x19, 0xbf, 0xa8, 0xbd, 0xe1, 0xbe,
  0x25, 0xb9, 0x1a, 0xbe, 0xf3, 0x6b, 0x69, 0x3f, 0xd1, 0x13, 0x16, 0xbe,
  0x58, 0xe0, 0x19, 0xbf, 0x74, 0x3d, 0x94, 0xbf, 0xc6, 0x6c, 0xaf, 0x3d,
  0x02, 0xd2, 0x0e, 0x3e, 0x3a, 0x0d, 0xa3, 0x40, 0xc0, 0xbf, 0xe0, 0x3d,
  0x06, 0x55, 0x75, 0xbf, 0x63, 0x25, 0x05, 0xbe, 0xb2, 0xd5, 0x42, 0xbf,
  0xb0, 0x74, 0x1e, 0xbe, 0xcd, 0xc7, 0x06, 0x3e, 0x17, 0x68, 0xba, 0x3c,
  0x68, 0xae, 0x73, 0x3f, 0x4a, 0xbf, 0x11, 0xc0, 0x62, 0xea, 0x85, 0x3d,
  0x3e, 0x4f, 0x7b, 0x40, 0x63, 0xae, 0x20, 0x3f, 0x82, 0xa7, 0xa3, 0xbe,
  0x30, 0xe7, 0x7a, 0xbd, 0x77, 0x86, 0x76, 0xbf, 0x4f, 0x89, 0x59, 0xbe,
  0xdd, 0xd7, 0x10, 0xbf, 0x39, 0x9a, 0xa1, 0xbc, 0x10, 0x45, 0xf4, 0x3d,
  0x3d, 0x5c, 0x05, 0x3d, 0xd7, 0xc5, 0x47, 0xbf, 0xee, 0x39, 0xd2, 0xbd,
  0xdb, 0x77, 0x01, 0x3e, 0x14, 0x12, 0x2a, 0xbe, 0x97, 0x12, 0x21, 0xbf,
  0x7a, 0x29, 0x54, 0xbe, 0xcd, 0xd3, 0xc2, 0xbe, 0xca, 0x8c, 0xfa, 0xbe,
  0x81, 0x3f, 0x64, 0xbf, 0x4f, 0x2d, 0xd1, 0x3e, 0x93, 0x97, 0x66, 0x40,
  0xe0, 0x56, 0xfe, 0x3f, 0x11, 0x26, 0x3d, 0xbf, 0x6b, 0xc0, 0xea, 0x3d,
  0x56, 0x90, 0x03, 0x3d, 0x40, 0x89, 0x27, 0x3f, 0x1f, 0x62, 0x72, 0x40,
  0x49, 0xd6, 0xa6, 0x3f, 0x91, 0xed, 0x48, 0xbf, 0xf9, 0xaf, 0x7c, 0xbf,
  0xbb, 0x66, 0x3c, 0xbf, 0x0e, 0x5e, 0xc3, 0x3e, 0x1b, 0x70, 0xe7, 0x3e,
  0xf1, 0xd5, 0x94, 0xbf, 0xba, 0xb0, 0xd9, 0x3d, 0x28, 0x82, 0xd7, 0x3e,
  0x06, 0xd9, 0x5d, 0x3f, 0x25, 0x2f, 0x86, 0x40, 0x90, 0x12, 0x66, 0xbf,
  0x4d, 0xce, 0xda, 0x3e, 0x3a, 0xad, 0x05, 0x3e, 0x6a, 0x23, 0x10, 0xbf,
  0x97, 0x3c, 0x27, 0xbf, 0xac, 0x3f, 0x5b, 0xbf, 0x6d, 0xb3, 0x7d, 0xbf,
  0x5c, 0x1e, 0x30, 0x3f, 0xfc, 0xd9, 0x5c, 0xbf, 0x51, 0x89, 0xfa, 0x3e,
  0xf2, 0x43, 0xc3, 0xbf, 0x20, 0xda, 0x2b, 0xbe, 0x52, 0xef, 0xb3, 0xbf,
  0xf2, 0xef, 0x82, 0x3e, 0x07, 0xaf, 0x87, 0x3d, 0xe5, 0xfe, 0xa7, 0x40,
  0x65, 0x1a, 0x81, 0x3e, 0x83, 0xea, 0xb3, 0xbe, 0x20, 0x51, 0x28, 0x3e,
  0xd4, 0xd9, 0x01, 0xc0, 0x73, 0x17, 0x6f, 0xbf, 0x99, 0x33, 0xa9, 0xbf,
  0xf2, 0xa3, 0x0d, 0x3f, 0x0f, 0x81, 0x46, 0x3f, 0x60, 0x46, 0x9f, 0xc0,
  0x47, 0xa8, 0xbd, 0x3e, 0x8a, 0x10, 0x58, 0x40, 0xab, 0x48, 0x44, 0x3e,
  0x26, 0xd1, 0x81, 0xbd, 0x9a, 0xf5, 0x12, 0xbe, 0x9e, 0x60, 0x0c, 0xbe,
  0x7f, 0xee, 0x13, 0x3e, 0x29, 0x01, 0x3e, 0xbf, 0x5e, 0x5c, 0xb6, 0x3e,
  0x83, 0x9b, 0xc3, 0xbe, 0xba, 0x98, 0x51, 0x3d, 0xa2, 0x6e, 0x62, 0xbf,
  0x7f, 0x51, 0x4a, 0xbf, 0x25, 0x5a, 0x6e, 0x3f, 0xd0, 0x18, 0x59, 0xbf,
  0x5c, 0x86, 0x2c, 0xbf, 0x1d, 0xdc, 0x2d, 0x3e, 0x7d, 0xc3, 0x44, 0x3d,
  0xc3, 0x7a, 0x8b, 0xbf, 0x81, 0xd5, 0x88, 0xbf, 0xf4, 0x22, 0xa4, 0x3e,
  0xb4, 0x59, 0x58, 0x40, 0x09, 0x51, 0xa6, 0x3f, 0xb8, 0xe0, 0x16, 0xbf,
  0x69, 0x1a, 0x3f, 0xbf, 0xc3, 0x15, 0xc2, 0x3e, 0xe0, 0x95, 0x0a, 0x3f,
  0x43, 0x47, 0x5c, 0x40, 0xba, 0xcf, 0x85, 0x3f, 0x00, 0x00, 0x06, 0x00,
  0x08, 0x00, 0x04, 0x00, 0x06, 0x00, 0x00, 0x00, 0x04, 0x00, 0x00, 0x00,
  0x80, 0x00, 0x00, 0x00, 0x7a, 0x2f, 0x2c, 0x3e, 0x8c, 0xfa, 0x73, 0x3f,
  0xb7, 0xa2, 0x67, 0x3f, 0x61, 0xbf, 0x69, 0x3f, 0xb1, 0x05, 0xfe, 0xbf,
  0xd6, 0xd0, 0x31, 0xc0, 0x6d, 0x10, 0x23, 0xbf, 0x1d, 0x22, 0x1d, 0x40,
  0x8b, 0x97, 0x87, 0x3e, 0x9c, 0x1c, 0xbf, 0xbf, 0x93, 0x08, 0x7f, 0x3f,
  0x87, 0xac, 0xdd, 0x3f, 0xb9, 0x5b, 0xad, 0xbe, 0x2f, 0x93, 0x63, 0xc0,
  0xd6, 0x8b, 0x22, 0x40, 0x96, 0x1c, 0x87, 0x3f, 0xed, 0xfc, 0xe1, 0xbf,
  0xb7, 0x66, 0x57, 0x40, 0x94, 0x99, 0x0c, 0xbf, 0xdf, 0x7b, 0x4c, 0x3f,
  0xc8, 0x9f, 0xbd, 0xbf, 0xda, 0xd8, 0x33, 0x40, 0x19, 0x59, 0x86, 0xbd,
  0x75, 0x2a, 0x7d, 0xbe, 0x3b, 0x21, 0x40, 0x3e, 0x2c, 0x4d, 0x21, 0xbf,
  0x7e, 0xc6, 0xd3, 0xbe, 0x30, 0xaa, 0x3d, 0xc0, 0x60, 0x2c, 0x13, 0xc0,
  0x11, 0x4b, 0x20, 0x40, 0xc5, 0x58, 0x00, 0x40, 0x3b, 0xec, 0x5f, 0x40,
  0x9c, 0xfa, 0xff, 0xff, 0xa0, 0xfa, 0xff, 0xff, 0x0f, 0x00, 0x00, 0x00,
  0x4d, 0x4c, 0x49, 0x52, 0x20, 0x43, 0x6f, 0x6e, 0x76, 0x65, 0x72, 0x74,
  0x65, 0x64, 0x2e, 0x00, 0x01, 0x00, 0x00, 0x00, 0x14, 0x00, 0x00, 0x00,
  0x00, 0x00, 0x0e, 0x00, 0x18, 0x00, 0x14, 0x00, 0x10, 0x00, 0x0c, 0x00,
  0x08, 0x00, 0x04, 0x00, 0x0e, 0x00, 0x00, 0x00, 0x14, 0x00, 0x00, 0x00,
  0x1c, 0x00, 0x00, 0x00, 0x08, 0x01, 0x00, 0x00, 0x0c, 0x01, 0x00, 0x00,
  0x10, 0x01, 0x00, 0x00, 0x04, 0x00, 0x00, 0x00, 0x6d, 0x61, 0x69, 0x6e,
  0x00, 0x00, 0x00, 0x00, 0x04, 0x00, 0x00, 0x00, 0xb0, 0x00, 0x00, 0x00,
  0x68, 0x00, 0x00, 0x00, 0x34, 0x00, 0x00, 0x00, 0x10, 0x00, 0x00, 0x00,
  0x00, 0x00, 0x0a, 0x00, 0x10, 0x00, 0x0c, 0x00, 0x08, 0x00, 0x04, 0x00,
  0x0a, 0x00, 0x00, 0x00, 0x0c, 0x00, 0x00, 0x00, 0x10, 0x00, 0x00, 0x00,
  0x01, 0x00, 0x00, 0x00, 0x01, 0x00, 0x00, 0x00, 0x0a, 0x00, 0x00, 0x00,
  0x01, 0x00, 0x00, 0x00, 0x09, 0x00, 0x00, 0x00, 0x9a, 0xff, 0xff, 0xff,
  0x10, 0x00, 0x00, 0x00, 0x00, 0x00, 0x00, 0x08, 0x0c, 0x00, 0x00, 0x00,
  0x10, 0x00, 0x00, 0x00, 0x48, 0xfb, 0xff, 0xff, 0x01, 0x00, 0x00, 0x00,
  0x09, 0x00, 0x00, 0x00, 0x03, 0x00, 0x00, 0x00, 0x08, 0x00, 0x00, 0x00,
  0x01, 0x00, 0x00, 0x00, 0x03, 0x00, 0x00, 0x00, 0xca, 0xff, 0xff, 0xff,
  0x10, 0x00, 0x00, 0x00, 0x00, 0x00, 0x00, 0x08, 0x10, 0x00, 0x00, 0x00,
  0x14, 0x00, 0x00, 0x00, 0xba, 0xff, 0xff, 0xff, 0x00, 0x00, 0x00, 0x01,
  0x01, 0x00, 0x00, 0x00, 0x08, 0x00, 0x00, 0x00, 0x03, 0x00, 0x00, 0x00,
  0x07, 0x00, 0x00, 0x00, 0x02, 0x00, 0x00, 0x00, 0x04, 0x00, 0x00, 0x00,
  0x00, 0x00, 0x0e, 0x00, 0x16, 0x00, 0x00, 0x00, 0x10, 0x00, 0x0c, 0x00,
  0x0b, 0x00, 0x04, 0x00, 0x0e, 0x00, 0x00, 0x00, 0x18, 0x00, 0x00, 0x00,
  0x00, 0x00, 0x00, 0x08, 0x18, 0x00, 0x00, 0x00, 0x1c, 0x00, 0x00, 0x00,
  0x00, 0x00, 0x06, 0x00, 0x08, 0x00, 0x07, 0x00, 0x06, 0x00, 0x00, 0x00,
  0x00, 0x00, 0x00, 0x01, 0x01, 0x00, 0x00, 0x00, 0x07, 0x00, 0x00, 0x00,
  0x03, 0x00, 0x00, 0x00, 0x00, 0x00, 0x00, 0x00, 0x06, 0x00, 0x00, 0x00,
  0x05, 0x00, 0x00, 0x00, 0x01, 0x00, 0x00, 0x00, 0x0a, 0x00, 0x00, 0x00,
  0x01, 0x00, 0x00, 0x00, 0x00, 0x00, 0x00, 0x00, 0x0b, 0x00, 0x00, 0x00,
  0xe0, 0x03, 0x00, 0x00, 0x88, 0x03, 0x00, 0x00, 0x30, 0x03, 0x00, 0x00,
  0xf4, 0x02, 0x00, 0x00, 0xb8, 0x02, 0x00, 0x00, 0x60, 0x02, 0x00, 0x00,
  0x10, 0x02, 0x00, 0x00, 0x74, 0x01, 0x00, 0x00, 0xd8, 0x00, 0x00, 0x00,
  0x60, 0x00, 0x00, 0x00, 0x04, 0x00, 0x00, 0x00, 0x62, 0xfc, 0xff, 0xff,
  0x00, 0x00, 0x00, 0x01, 0x14, 0x00, 0x00, 0x00, 0x1c, 0x00, 0x00, 0x00,
  0x1c, 0x00, 0x00, 0x00, 0x0b, 0x00, 0x00, 0x00, 0x34, 0x00, 0x00, 0x00,
  0x02, 0x00, 0x00, 0x00, 0xff, 0xff, 0xff, 0xff, 0x01, 0x00, 0x00, 0x00,
  0x4c, 0xfc, 0xff, 0xff, 0x1b, 0x00, 0x00, 0x00, 0x53, 0x74, 0x61, 0x74,
  0x65, 0x66, 0x75, 0x6c, 0x50, 0x61, 0x72, 0x74, 0x69, 0x74, 0x69, 0x6f,
  0x6e, 0x65, 0x64, 0x43, 0x61, 0x6c, 0x6c, 0x5f, 0x31, 0x3a, 0x30, 0x00,
  0x02, 0x00, 0x00, 0x00, 0x01, 0x00, 0x00, 0x00, 0x01, 0x00, 0x00, 0x00,
  0xba, 0xfc, 0xff, 0xff, 0x00, 0x00, 0x00, 0x01, 0x14, 0x00, 0x00, 0x00,
  0x1c, 0x00, 0x00, 0x00, 0x1c, 0x00, 0x00, 0x00, 0x0a, 0x00, 0x00, 0x00,
  0x50, 0x00, 0x00, 0x00, 0x02, 0x00, 0x00, 0x00, 0xff, 0xff, 0xff, 0xff,
  0x01, 0x00, 0x00, 0x00, 0xa4, 0xfc, 0xff, 0xff, 0x34, 0x00, 0x00, 0x00,
  0x66, 0x75, 0x6e, 0x63, 0x74, 0x69, 0x6f, 0x6e, 0x61, 0x6c, 0x5f, 0x31,
  0x5f, 0x31, 0x2f, 0x6f, 0x75, 0x74, 0x5f, 0x31, 0x2f, 0x4d, 0x61, 0x74,
  0x4d, 0x75, 0x6c, 0x3b, 0x66, 0x75, 0x6e, 0x63, 0x74, 0x69, 0x6f, 0x6e,
  0x61, 0x6c, 0x5f, 0x31, 0x5f, 0x31, 0x2f, 0x6f, 0x75, 0x74, 0x5f, 0x31,
  0x2f, 0x41, 0x64, 0x64, 0x00, 0x00, 0x00, 0x00, 0x02, 0x00, 0x00, 0x00,
  0x01, 0x00, 0x00, 0x00, 0x01, 0x00, 0x00, 0x00, 0x2e, 0xfd, 0xff, 0xff,
  0x00, 0x00, 0x00, 0x01, 0x14, 0x00, 0x00, 0x00, 0x1c, 0x00, 0x00, 0x00,
  0x1c, 0x00, 0x00, 0x00, 0x09, 0x00, 0x00, 0x00, 0x74, 0x00, 0x00, 0x00,
  0x02, 0x00, 0x00, 0x00, 0xff, 0xff, 0xff, 0xff, 0x20, 0x00, 0x00, 0x00,
  0x18, 0xfd, 0xff, 0xff, 0x5a, 0x00, 0x00, 0x00, 0x66, 0x75, 0x6e, 0x63,
  0x74, 0x69, 0x6f, 0x6e, 0x61, 0x6c, 0x5f, 0x31, 0x5f, 0x31, 0x2f, 0x64,
  0x65, 0x6e, 0x73, 0x65, 0x5f, 0x33, 0x5f, 0x31, 0x2f, 0x4d, 0x61, 0x74,
  0x4d, 0x75, 0x6c, 0x3b, 0x66, 0x75, 0x6e, 0x63, 0x74, 0x69, 0x6f, 0x6e,
  0x61, 0x6c, 0x5f, 0x31, 0x5f, 0x31, 0x2f, 0x64, 0x65, 0x6e, 0x73, 0x65,
  0x5f, 0x33, 0x5f, 0x31, 0x2f, 0x52, 0x65, 0x6c, 0x75, 0x3b, 0x66, 0x75,
  0x6e, 0x63, 0x74, 0x69, 0x6f, 0x6e, 0x61, 0x6c, 0x5f, 0x31, 0x5f, 0x31,
  0x2f, 0x64, 0x65, 0x6e, 0x73, 0x65, 0x5f, 0x33, 0x5f, 0x31, 0x2f, 0x41,
  0x64, 0x64, 0x00, 0x00, 0x02, 0x00, 0x00, 0x00, 0x01, 0x00, 0x00, 0x00,
  0x20, 0x00, 0x00, 0x00, 0xc6, 0xfd, 0xff, 0xff, 0x00, 0x00, 0x00, 0x01,
  0x14, 0x00, 0x00, 0x00, 0x1c, 0x00, 0x00, 0x00, 0x1c, 0x00, 0x00, 0x00,
  0x08, 0x00, 0x00, 0x00, 0x74, 0x00, 0x00, 0x00, 0x02, 0x00, 0x00, 0x00,
  0xff, 0xff, 0xff, 0xff, 0x40, 0x00, 0x00, 0x00, 0xb0, 0xfd, 0xff, 0xff,
  0x5a, 0x00, 0x00, 0x00, 0x66, 0x75, 0x6e, 0x63, 0x74, 0x69, 0x6f, 0x6e,
  0x61, 0x6c, 0x5f, 0x31, 0x5f, 0x31, 0x2f, 0x64, 0x65, 0x6e, 0x73, 0x65,
  0x5f, 0x32, 0x5f, 0x31, 0x2f, 0x4d, 0x61, 0x74, 0x4d, 0x75, 0x6c, 0x3b,
  0x66, 0x75, 0x6e, 0x63, 0x74, 0x69, 0x6f, 0x6e, 0x61, 0x6c, 0x5f, 0x31,
  0x5f, 0x31, 0x2f, 0x64, 0x65, 0x6e, 0x73, 0x65, 0x5f, 0x32, 0x5f, 0x31,
  0x2f, 0x52, 0x65, 0x6c, 0x75, 0x3b, 0x66, 0x75, 0x6e, 0x63, 0x74, 0x69,
  0x6f, 0x6e, 0x61, 0x6c, 0x5f, 0x31, 0x5f, 0x31, 0x2f, 0x64, 0x65, 0x6e,
  0x73, 0x65, 0x5f, 0x32, 0x5f, 0x31, 0x2f, 0x41, 0x64, 0x64, 0x00, 0x00,
  0x02, 0x00, 0x00, 0x00, 0x01, 0x00, 0x00, 0x00, 0x40, 0x00, 0x00, 0x00,
  0xb2, 0xfe, 0xff, 0xff, 0x00, 0x00, 0x00, 0x01, 0x10, 0x00, 0x00, 0x00,
  0x10, 0x00, 0x00, 0x00, 0x07, 0x00, 0x00, 0x00, 0x2c, 0x00, 0x00, 0x00,
  0x38, 0xfe, 0xff, 0xff, 0x1f, 0x00, 0x00, 0x00, 0x66, 0x75, 0x6e, 0x63,
  0x74, 0x69, 0x6f, 0x6e, 0x61, 0x6c, 0x5f, 0x31, 0x5f, 0x31, 0x2f, 0x64,
  0x65, 0x6e, 0x73, 0x65, 0x5f, 0x32, 0x5f, 0x31, 0x2f, 0x4d, 0x61, 0x74,
  0x4d, 0x75, 0x6c, 0x00, 0x02, 0x00, 0x00, 0x00, 0x40, 0x00, 0x00, 0x00,
  0x07, 0x00, 0x00, 0x00, 0xfe, 0xfe, 0xff, 0xff, 0x00, 0x00, 0x00, 0x01,
  0x10, 0x00, 0x00, 0x00, 0x10, 0x00, 0x00, 0x00, 0x06, 0x00, 0x00, 0x00,
  0x38, 0x00, 0x00, 0x00, 0x84, 0xfe, 0xff, 0xff, 0x2b, 0x00, 0x00, 0x00,
  0x66, 0x75, 0x6e, 0x63, 0x74, 0x69, 0x6f, 0x6e, 0x61, 0x6c, 0x5f, 0x31,
  0x5f, 0x31, 0x2f, 0x64, 0x65, 0x6e, 0x73, 0x65, 0x5f, 0x32, 0x5f, 0x31,
  0x2f, 0x41, 0x64, 0x64, 0x2f, 0x52, 0x65, 0x61, 0x64, 0x56, 0x61, 0x72,
  0x69, 0x61, 0x62, 0x6c, 0x65, 0x4f, 0x70, 0x00, 0x01, 0x00, 0x00, 0x00,
  0x40, 0x00, 0x00, 0x00, 0x52, 0xff, 0xff, 0xff, 0x00, 0x00, 0x00, 0x01,
  0x10, 0x00, 0x00, 0x00, 0x10, 0x00, 0x00, 0x00, 0x05, 0x00, 0x00, 0x00,
  0x1c, 0x00, 0x00, 0x00, 0xd8, 0xfe, 0xff, 0xff, 0x0f, 0x00, 0x00, 0x00,
  0x61, 0x72, 0x69, 0x74, 0x68, 0x2e, 0x63, 0x6f, 0x6e, 0x73, 0x74, 0x61,
  0x6e, 0x74, 0x33, 0x00, 0x01, 0x00, 0x00, 0x00, 0x20, 0x00, 0x00, 0x00,
  0x8a, 0xff, 0xff, 0xff, 0x00, 0x00, 0x00, 0x01, 0x10, 0x00, 0x00, 0x00,
  0x10, 0x00, 0x00, 0x00, 0x04, 0x00, 0x00, 0x00, 0x1c, 0x00, 0x00, 0x00,
  0x10, 0xff, 0xff, 0xff, 0x0f, 0x00, 0x00, 0x00, 0x61, 0x72, 0x69, 0x74,
  0x68, 0x2e, 0x63, 0x6f, 0x6e, 0x73, 0x74, 0x61, 0x6e, 0x74, 0x32, 0x00,
  0x01, 0x00, 0x00, 0x00, 0x01, 0x00, 0x00, 0x00, 0xc2, 0xff, 0xff, 0xff,
  0x00, 0x00, 0x00, 0x01, 0x10, 0x00, 0x00, 0x00, 0x10, 0x00, 0x00, 0x00,
  0x03, 0x00, 0x00, 0x00, 0x1c, 0x00, 0x00, 0x00, 0x48, 0xff, 0xff, 0xff,
  0x0f, 0x00, 0x00, 0x00, 0x61, 0x72, 0x69, 0x74, 0x68, 0x2e, 0x63, 0x6f,
  0x6e, 0x73, 0x74, 0x61, 0x6e, 0x74, 0x31, 0x00, 0x02, 0x00, 0x00, 0x00,
  0x20, 0x00, 0x00, 0x00, 0x40, 0x00, 0x00, 0x00, 0x00, 0x00, 0x16, 0x00,
  0x18, 0x00, 0x14, 0x00, 0x00, 0x00, 0x10, 0x00, 0x0c, 0x00, 0x08, 0x00,
  0x00, 0x00, 0x00, 0x00, 0x00, 0x00, 0x07, 0x00, 0x16, 0x00, 0x00, 0x00,
  0x00, 0x00, 0x00, 0x01, 0x10, 0x00, 0x00, 0x00, 0x10, 0x00, 0x00, 0x00,
  0x02, 0x00, 0x00, 0x00, 0x1c, 0x00, 0x00, 0x00, 0x9c, 0xff, 0xff, 0xff,
  0x0e, 0x00, 0x00, 0x00, 0x61, 0x72, 0x69, 0x74, 0x68, 0x2e, 0x63, 0x6f,
  0x6e, 0x73, 0x74, 0x61, 0x6e, 0x74, 0x00, 0x00, 0x02, 0x00, 0x00, 0x00,
  0x01, 0x00, 0x00, 0x00, 0x20, 0x00, 0x00, 0x00, 0x00, 0x00, 0x16, 0x00,
  0x1c, 0x00, 0x18, 0x00, 0x00, 0x00, 0x14, 0x00, 0x10, 0x00, 0x0c, 0x00,
  0x00, 0x00, 0x00, 0x00, 0x08, 0x00, 0x07, 0x00, 0x16, 0x00, 0x00, 0x00,
  0x00, 0x00, 0x00, 0x01, 0x14, 0x00, 0x00, 0x00, 0x20, 0x00, 0x00, 0x00,
  0x20, 0x00, 0x00, 0x00, 0x01, 0x00, 0x00, 0x00, 0x34, 0x00, 0x00, 0x00,
  0x02, 0x00, 0x00, 0x00, 0xff, 0xff, 0xff, 0xff, 0x07, 0x00, 0x00, 0x00,
  0x04, 0x00, 0x04, 0x00, 0x04, 0x00, 0x00, 0x00, 0x16, 0x00, 0x00, 0x00,
  0x73, 0x65, 0x72, 0x76, 0x69, 0x6e, 0x67, 0x5f, 0x64, 0x65, 0x66, 0x61,
  0x75, 0x6c, 0x74, 0x5f, 0x66, 0x65, 0x61, 0x74, 0x3a, 0x30, 0x00, 0x00,
  0x02, 0x00, 0x00, 0x00, 0x01, 0x00, 0x00, 0x00, 0x07, 0x00, 0x00, 0x00,
  0x02, 0x00, 0x00, 0x00, 0x20, 0x00, 0x00, 0x00, 0x04, 0x00, 0x00, 0x00,
  0xf4, 0xff, 0xff, 0xff, 0x0e, 0x00, 0x00, 0x00, 0x00, 0x00, 0x00, 0x0e,
  0x0c, 0x00, 0x0c, 0x00, 0x0b, 0x00, 0x00, 0x00, 0x00, 0x00, 0x04, 0x00,
  0x0c, 0x00, 0x00, 0x00, 0x09, 0x00, 0x00, 0x00, 0x00, 0x00, 0x00, 0x09
};
unsigned int mlp_fp32_tflite_len = 12528;
